TRT-100800-EntropyCalibration2
images: 3b66eddc
/model.0/conv/Conv_output_0: 3eda54fc
/model.0/act/Sigmoid_output_0: 3c010a14
/model.0/act/Mul_output_0: 3e963cbf
/model.1/conv/Conv_output_0: 3f6c1ad4
/model.1/act/Sigmoid_output_0: 3c010a14
/model.1/act/Mul_output_0: 3eb86e72
/model.2/cv1/conv/Conv_output_0: 3f6d6e20
/model.2/cv1/act/Sigmoid_output_0: 3c010a14
/model.2/cv1/act/Mul_output_0: 3e87e52f
/model.23/ConstantOfShape_2_output_0: 0
/model.23/cv3.2/cv3.2.0/cv3.2.0.1/act/Mul_output_0: 3cb10281
/model.23/Reshape_10_output_0: 3e9f4871
/model.23/Slice_output_0: 3dcf3bc7
/model.23/Reshape_8_output_0: 3e9f4871
/model.23/Reshape_15_output_0: 3e1d4449
/model.2/Split_output_0: 3e8c508a
/model.23/Reshape_16_output_0: 3e1d4449
/model.23/Range_5_output_0: 3e193bf8
/model.23/Squeeze_2_output_0_output: 3e810a14
/model.2/Split_output_1: 3e8fba98
/model.2/m.0/cv1/conv/Conv_output_0: 3dc9df78
/model.2/m.0/cv1/act/Sigmoid_output_0: 3bf9e41c
/model.2/m.0/cv1/act/Mul_output_0: 3c1b2b4d
/model.2/m.0/cv2/conv/Conv_output_0: 3e933f9c
/model.2/m.0/cv2/act/Sigmoid_output_0: 3c010a14
/model.2/m.0/cv2/act/Mul_output_0: 3e8c77e8
/model.2/m.0/Add_output_0: 3e9e8da9
/model.2/Concat_output_0: 3e898096
/model.2/cv2/conv/Conv_output_0: 3f023af6
/model.2/cv2/act/Sigmoid_output_0: 3c010a14
/model.2/cv2/act/Mul_output_0: 3dc49fb5
/model.3/conv/Conv_output_0: 3e068124
/model.3/act/Sigmoid_output_0: 3c010a14
/model.3/act/Mul_output_0: 3d8fe9a0
/model.4/cv1/conv/Conv_output_0: 3db85db9
/model.4/cv1/act/Sigmoid_output_0: 3c05a030
/model.4/cv1/act/Mul_output_0: 3d0ebd04
/model.23/Concat_22_output_0: 3f204a85
/model.23/Transpose_1_output_0: 3e810a14
/model.23/dfl/Transpose_output_0: 3dea3913
/model.23/Sigmoid_output_0: 38929a25
ONNXTRT_ShapeShuffle_314_output: 0
/model.23/cv3.2/cv3.2.0/cv3.2.0.0/act/Mul_output_0: 3d3f1a85
/model.4/Split_output_0: 3d0ebd04
/model.23/Reshape_2_output_0: 3dc001b7
/model.23/Mul_5_output_0: 40b70904
/model.23/cv3.2/cv3.2.1/cv3.2.1.1/conv/Conv_output_0: 3d11a3da
/model.4/Split_output_1: 3d003e72
/model.4/m.0/cv1/conv/Conv_output_0: 3cdbb905
/model.4/m.0/cv1/act/Sigmoid_output_0: 3c06a6c3
/model.4/m.0/cv1/act/Mul_output_0: 3c99a913
/model.4/m.0/cv2/conv/Conv_output_0: 3d65514c
/model.4/m.0/cv2/act/Sigmoid_output_0: 3c008d0d
/model.4/m.0/cv2/act/Mul_output_0: 3d3b8b3b
/model.4/m.0/Add_output_0: 3d79b598
/model.4/Concat_output_0: 3d67efba
/model.4/cv2/conv/Conv_output_0: 3db7b7fc
/model.4/cv2/act/Sigmoid_output_0: 3c08a6bc
/model.4/cv2/act/Mul_output_0: 3cb45467
/model.5/conv/Conv_output_0: 3d5f7d5b
/model.5/act/Sigmoid_output_0: 3c004ab6
/model.5/act/Mul_output_0: 3cd4841e
/model.6/cv1/conv/Conv_output_0: 3dd5be93
/model.6/cv1/act/Sigmoid_output_0: 3c0a2fc9
/model.6/cv1/act/Mul_output_0: 3ce805fc
/model.23/Sub_output_0: 3f2368d4
/model.22/Concat_output_0: 3cbfdbf5
/model.22/cv2/act/Mul_output_0: 3d01caa2
/model.23/Add_11_output_0: 3fb09fb7
/model.23/cv2.2/cv2.2.0/conv/Conv_output_0: 3d8e3871
/model.22/m.0/Concat_output_0: 3d8ea215
/model.6/Split_output_0: 3d0052b9
/model.22/m.0/m/m.1/Add_output_0: 3db907cf
(Unnamed Layer* 505) [Constant]_output: 0
ONNXTRT_Broadcast_236_output: 3b810a14
/model.6/Split_output_1: 3cd145db
/model.6/m.0/cv1/conv/Conv_output_0: 3cecb578
/model.6/m.0/cv2/conv/Conv_output_0: 3da2d0a6
/model.6/m.0/cv1/act/Sigmoid_output_0: 3c00b269
/model.6/m.0/cv2/act/Sigmoid_output_0: 3c0510fb
/model.6/m.0/cv1/act/Mul_output_0: 3cb1e4a5
/model.6/m.0/cv2/act/Mul_output_0: 3d256726
/model.6/m.0/m/m.0/cv1/conv/Conv_output_0: 3d2e0cd8
/model.6/m.0/m/m.0/cv1/act/Sigmoid_output_0: 3c0007a2
/model.6/m.0/m/m.0/cv1/act/Mul_output_0: 3cc23257
/model.6/m.0/m/m.0/cv2/conv/Conv_output_0: 3d4b19aa
/model.6/m.0/m/m.0/cv2/act/Sigmoid_output_0: 3c00fb84
/model.6/m.0/m/m.0/cv2/act/Mul_output_0: 3d012bf6
/model.6/m.0/m/m.0/Add_output_0: 3d7e5f1b
/model.6/m.0/m/m.1/cv1/conv/Conv_output_0: 3d6c47a9
/model.6/m.0/m/m.1/cv1/act/Sigmoid_output_0: 3c055d8a
/model.6/m.0/m/m.1/cv1/act/Mul_output_0: 3c80b64c
/model.6/m.0/m/m.1/cv2/conv/Conv_output_0: 3d6e8af1
/model.6/m.0/m/m.1/cv2/act/Sigmoid_output_0: 3c00be94
/model.6/m.0/m/m.1/cv2/act/Mul_output_0: 3d42420e
/model.6/m.0/m/m.1/Add_output_0: 3d8dedae
/model.6/m.0/Concat_output_0: 3d6b7167
/model.6/m.0/cv3/conv/Conv_output_0: 3da8945c
/model.6/m.0/cv3/act/Sigmoid_output_0: 3c0583ea
/model.6/m.0/cv3/act/Mul_output_0: 3cb27a83
/model.6/Concat_output_0: 3ce805fc
/model.6/cv2/conv/Conv_output_0: 3d77d5e6
/model.6/cv2/act/Sigmoid_output_0: 3c03ad6e
/model.6/cv2/act/Mul_output_0: 3cbfb191
/model.7/conv/Conv_output_0: 3d8e9f10
/model.7/act/Sigmoid_output_0: 3c019662
/model.7/act/Mul_output_0: 3ce6504b
/model.8/cv1/conv/Conv_output_0: 3da4a30e
/model.8/cv1/act/Sigmoid_output_0: 3c00d968
/model.8/cv1/act/Mul_output_0: 3d10e81e
/model.23/cv2.2/cv2.2.0/act/Mul_output_0: 3d3feea2
/model.23/Reshape_14_output_0: 3e1d4449
/model.23/Slice_1_output_0: 3db9ebd1
/model.23/Unsqueeze_6_output_0: 3e9f4871
/model.23/Unsqueeze_7_output_0: 3e9f4871
/model.22/m.0/m/m.1/cv2/act/Sigmoid_output_0: 3c041759
/model.8/Split_output_0: 3d004d19
/model.23/Expand_3_output_0: 3e9f4871
/model.23/Expand_4_output_0: 3e1d4449
ONNXTRT_Broadcast_234_output: 3b810a14
/model.8/Split_output_1: 3ce85a7f
/model.8/m.0/cv1/conv/Conv_output_0: 3d7a3abf
/model.8/m.0/cv2/conv/Conv_output_0: 3db2f1e2
/model.8/m.0/cv1/act/Sigmoid_output_0: 3c08cb9f
/model.8/m.0/cv2/act/Sigmoid_output_0: 3c031356
/model.8/m.0/cv1/act/Mul_output_0: 3c99dd39
/model.8/m.0/cv2/act/Mul_output_0: 3d2625f4
/model.8/m.0/m/m.0/cv1/conv/Conv_output_0: 3d78fa0d
/model.8/m.0/m/m.0/cv1/act/Sigmoid_output_0: 3c09c3c8
/model.8/m.0/m/m.0/cv1/act/Mul_output_0: 3ce9b6d6
/model.8/m.0/m/m.0/cv2/conv/Conv_output_0: 3d81b162
/model.8/m.0/m/m.0/cv2/act/Sigmoid_output_0: 3c0d1abf
/model.8/m.0/m/m.0/cv2/act/Mul_output_0: 3d000ed0
/model.8/m.0/m/m.0/Add_output_0: 3d50af37
/model.8/m.0/m/m.1/cv1/conv/Conv_output_0: 3dbf1a49
/model.8/m.0/m/m.1/cv1/act/Sigmoid_output_0: 3c065d9d
/model.8/m.0/m/m.1/cv1/act/Mul_output_0: 3cd0db4d
/model.8/m.0/m/m.1/cv2/conv/Conv_output_0: 3e0e83fc
/model.8/m.0/m/m.1/cv2/act/Sigmoid_output_0: 3c03be62
/model.8/m.0/m/m.1/cv2/act/Mul_output_0: 3d662e7a
/model.8/m.0/m/m.1/Add_output_0: 3dd09fd1
/model.8/m.0/Concat_output_0: 3d9222fa
/model.8/m.0/cv3/conv/Conv_output_0: 3d992e0c
/model.8/m.0/cv3/act/Sigmoid_output_0: 3c0b0062
/model.8/m.0/cv3/act/Mul_output_0: 3ce8bbc8
/model.8/Concat_output_0: 3d01583a
/model.8/cv2/conv/Conv_output_0: 3db15e98
/model.8/cv2/act/Sigmoid_output_0: 3c045aaa
/model.8/cv2/act/Mul_output_0: 3d10f6f0
/model.9/cv1/conv/Conv_output_0: 3d55c827
/model.9/cv1/act/Sigmoid_output_0: 3c04525f
/model.9/cv1/act/Mul_output_0: 3d6389c3
/model.9/m/MaxPool_output_0: 3d6389c3
/model.9/m_1/MaxPool_output_0: 3d6389c3
/model.9/m_2/MaxPool_output_0: 3d6389c3
/model.9/Concat_output_0: 3d533b5f
/model.9/cv2/conv/Conv_output_0: 3d99a028
/model.9/cv2/act/Sigmoid_output_0: 3bf484ea
/model.9/cv2/act/Mul_output_0: 3c804278
/model.10/cv1/conv/Conv_output_0: 3d781390
/model.10/cv1/act/Sigmoid_output_0: 3c094ebf
/model.10/cv1/act/Mul_output_0: 3d1018e0
output0: 40b70904
/model.23/Constant_67_output_0_output: 3c810a14
/model.23/Sub_1_output_0: 3e46fcc6
/model.23/cv3.1/cv3.1.0/cv3.1.0.1/act/Sigmoid_output_0: 3c010526
ONNXTRT_ShapeShuffle_239_output: 0
/model.23/cv2.2/cv2.2.0/act/Sigmoid_output_0: 3c046392
/model.10/Split_output_0: 3d113397
/model.23/cv3.2/cv3.2.1/cv3.2.1.1/act/Sigmoid_output_0: 3c026a69
/model.23/Concat_20_output_0: 3e1d4449
/model.22/cv2/act/Sigmoid_output_0: 3c04f86c
/model.10/Split_output_1: 3d248f87
/model.23/cv3.2/cv3.2.1/cv3.2.1.0/conv/Conv_output_0: 3d3828c3
/model.22/m.0/cv3/conv/Conv_output_0: 3d864959
/model.10/m/m.0/attn/qkv/conv/Conv_output_0: 3d4bcb86
ONNXTRT_Broadcast_309_output: 3b810a14
/model.23/cv3.2/cv3.2.0/cv3.2.0.0/conv/Conv_output_0: 3d87eafe
/model.23/Expand_5_output_0: 3e1d4449
/model.23/dfl/Softmax_output_0: 3ba8e178
/model.23/cv3.2/cv3.2.1/cv3.2.1.0/act/Sigmoid_output_0: 3bff50a7
/model.22/m.0/m/m.0/cv2/conv/Conv_output_0: 3d47cccc
/model.22/m.0/m/m.1/cv2/conv/Conv_output_0: 3dc7e6b5
/model.23/Expand_2_output_0: 3e9f4871
/model.22/m.0/m/m.0/cv2/act/Mul_output_0: 3cb198ec
ONNXTRT_ShapeShuffle_232_output: 3c010a14
/model.23/Range_3_output_0: 3e9d4449
/model.23/Reshape_17_output_0: 3e1d4449
/model.23/Concat_6_output_0: 3de6e189
/model.22/m.0/cv1/act/Sigmoid_output_0: 3be4738a
/model.23/Concat_15_output_0: 3e9f4871
ONNXTRT_Broadcast_419_output: 3c810a14
/model.10/m/m.0/attn/Reshape_output_0: 3d4bcb86
/model.23/Squeeze_1_output_0_output: 3e010a14
/model.23/Reshape_11_output_0: 3e9f4871
/model.23/dfl/Reshape_1_output_0: 3dbb9d48
ONNXTRT_Broadcast_426_output: 3e810a14
/model.23/Range_4_output_0: 3e193bf8
/model.23/ConstantOfShape_1_output_0: 0
/model.10/m/m.0/attn/Split_output_0: 3d1564d7
/model.22/m.0/m/m.1/cv1/act/Sigmoid_output_0: 3bfb5634
/model.23/Reshape_9_output_0: 3e9f4871
/model.23/Add_5_output_0: 3e010a14
/model.10/m/m.0/attn/Split_output_1: 3d4bd8c2
ONNXTRT_ShapeShuffle_297_output: 3c010a14
/model.22/m.0/cv3/act/Sigmoid_output_0: 3c00c11e
/model.22/cv2/conv/Conv_output_0: 3d76aa7b
/model.10/m/m.0/attn/Split_output_2: 3d5a7452
/model.10/m/m.0/attn/Transpose_output_0: 3d1564d7
/model.10/m/m.0/attn/Reshape_2_output_0: 3d5a7452
/model.10/m/m.0/attn/MatMul_output_0: 3f7827f9
/model.10/m/m.0/attn/pe/conv/Conv_output_0: 3d38fb76
/model.10/m/m.0/attn/Constant_6_output_0_output: 3ab67d3d
ONNXTRT_Broadcast_output: 3ab67d3d
/model.10/m/m.0/attn/Mul_1_output_0: 3e2f7910
/model.10/m/m.0/attn/Softmax_output: 3a52c42c
/model.10/m/m.0/attn/Softmax_output_0: 3a52c42c
/model.23/cv2.2/cv2.2.1/act/Sigmoid_output_0: 3c010a14
/model.23/cv2.1/cv2.1.1/act/Mul_output_0: 3e170fe8
/model.10/m/m.0/attn/Transpose_1_output_0: 3a52c42c
/model.10/m/m.0/attn/MatMul_1_output_0: 3d4bd702
/model.10/m/m.0/attn/Reshape_1_output_0: 3d4bd702
/model.10/m/m.0/attn/Add_output_0: 3d0a0147
/model.10/m/m.0/attn/proj/conv/Conv_output_0: 3d342469
/model.10/m/m.0/Add_output_0: 3d444066
/model.10/m/m.0/ffn/ffn.0/conv/Conv_output_0: 3d68f906
/model.10/m/m.0/ffn/ffn.0/act/Sigmoid_output_0: 3c025fa4
/model.10/m/m.0/ffn/ffn.0/act/Mul_output_0: 3beca11f
/model.10/m/m.0/ffn/ffn.1/conv/Conv_output_0: 3cbfdab4
/model.10/m/m.0/Add_1_output_0: 3d5079f1
/model.10/Concat_output_0: 3d2600f0
/model.10/cv2/conv/Conv_output_0: 3d3fc39a
/model.10/cv2/act/Sigmoid_output_0: 3bf12ff3
/model.10/cv2/act/Mul_output_0: 3c67b1bd
/model.11/Resize_output_0: 3c67b1bd
/model.12/Concat_output_0: 3c998297
/model.13/cv1/conv/Conv_output_0: 3d83baab
/model.13/cv1/act/Sigmoid_output_0: 3bff8664
/model.13/cv1/act/Mul_output_0: 3ca54c3b
ONNXTRT_ShapeShuffle_222_output: 3c010a14
/model.23/Div_1_output_0: 3f309fb7
/model.22/m.0/cv1/act/Mul_output_0: 3bd1aeaf
/model.22/cv1/act/Sigmoid_output_0: 3c036546
/model.23/Expand_1_output_0: 3f204a85
/model.23/Unsqueeze_4_output_0: 3f204a85
/model.13/Split_output_0: 3cd2106d
/model.22/m.0/m/m.0/Add_output_0: 3d2350ba
/model.23/Transpose_output_0: 3f204a85
/model.22/m.0/cv2/conv/Conv_output_0: 3d598cb6
/model.13/Split_output_1: 3c805c8f
/model.13/m.0/cv1/conv/Conv_output_0: 3d1a3b32
/model.13/m.0/cv1/act/Sigmoid_output_0: 3bf7b94e
/model.13/m.0/cv1/act/Mul_output_0: 3c88703b
/model.13/m.0/cv2/conv/Conv_output_0: 3d411ebb
/model.13/m.0/cv2/act/Sigmoid_output_0: 3c007f18
/model.13/m.0/cv2/act/Mul_output_0: 3ce6c993
/model.13/m.0/Add_output_0: 3d0f0f62
/model.13/Concat_output_0: 3cc0d555
/model.13/cv2/conv/Conv_output_0: 3d4b0982
/model.13/cv2/act/Sigmoid_output_0: 3bf768b7
/model.13/cv2/act/Mul_output_0: 3c660c0a
/model.14/Resize_output_0: 3c660c0a
/model.15/Concat_output_0: 3cb45467
/model.16/cv1/conv/Conv_output_0: 3d85e936
/model.16/cv1/act/Sigmoid_output_0: 3bf95d83
/model.16/cv1/act/Mul_output_0: 3c8fed52
/model.23/Concat_10_output_0: 3f204a85
/model.23/Concat_1_output_0: 3dd5ab9f
/model.23/Split_1_output_0: 3dea3913
/model.22/m.0/cv3/act/Mul_output_0: 3d0f64ee
/model.23/cv2.1/cv2.1.1/act/Sigmoid_output_0: 3c010a14
/model.23/cv3.1/cv3.1.2/Conv_output_0: 3de96654
/model.16/Split_output_0: 3c8fed52
/model.22/m.0/m/m.0/cv1/act/Sigmoid_output_0: 3c049a33
/model.23/cv3.1/cv3.1.1/cv3.1.1.1/act/Mul_output_0: 3ce8dc0c
/model.22/m.0/m/m.0/cv1/conv/Conv_output_0: 3d1a6830
/model.16/Split_output_1: 3c99f267
/model.16/m.0/cv1/conv/Conv_output_0: 3d192642
/model.16/m.0/cv1/act/Sigmoid_output_0: 3c018117
/model.16/m.0/cv1/act/Mul_output_0: 3d019969
/model.16/m.0/cv2/conv/Conv_output_0: 3d58aa8a
/model.16/m.0/cv2/act/Sigmoid_output_0: 3bfed4c9
/model.16/m.0/cv2/act/Mul_output_0: 3cd1e3a9
/model.16/m.0/Add_output_0: 3d23a0af
/model.16/Concat_output_0: 3ce76ee5
/model.16/cv2/conv/Conv_output_0: 3d5b07e4
/model.16/cv2/act/Sigmoid_output_0: 3bfe469b
/model.16/cv2/act/Mul_output_0: 3cc11bac
/model.17/conv/Conv_output_0: 3d62146d
/model.23/cv2.0/cv2.0.0/conv/Conv_output_0: 3d79e373
/model.23/cv3.0/cv3.0.0/cv3.0.0.0/conv/Conv_output_0: 3d3fb741
/model.17/act/Sigmoid_output_0: 3c018a14
/model.23/cv2.0/cv2.0.0/act/Sigmoid_output_0: 3c00f7c9
/model.23/cv3.0/cv3.0.0/cv3.0.0.0/act/Sigmoid_output_0: 3bfdf910
/model.17/act/Mul_output_0: 3c80780a
/model.23/cv2.0/cv2.0.0/act/Mul_output_0: 3cb2d30d
/model.23/cv3.0/cv3.0.0/cv3.0.0.0/act/Mul_output_0: 3d0e7c63
/model.18/Concat_output_0: 3c80780a
/model.23/cv2.0/cv2.0.1/conv/Conv_output_0: 3e491466
/model.23/cv3.0/cv3.0.0/cv3.0.0.1/conv/Conv_output_0: 3d57ff82
/model.19/cv1/conv/Conv_output_0: 3d4b7660
/model.23/cv2.0/cv2.0.1/act/Sigmoid_output_0: 3c010a14
/model.23/cv3.0/cv3.0.0/cv3.0.0.1/act/Sigmoid_output_0: 3c040e94
/model.19/cv1/act/Sigmoid_output_0: 3c044fe4
/model.23/cv2.0/cv2.0.1/act/Mul_output_0: 3e140f19
/model.23/cv3.0/cv3.0.0/cv3.0.0.1/act/Mul_output_0: 3d00c3c5
/model.19/cv1/act/Mul_output_0: 3ca644ed
/model.23/cv2.0/cv2.0.2/Conv_output_0: 3dea3913
/model.23/cv3.0/cv3.0.1/cv3.0.1.0/conv/Conv_output_0: 3d8770f5
/model.23/cv3.1/cv3.1.0/cv3.1.0.1/conv/Conv_output_0: 3d60ebc6
/model.23/cv3.1/cv3.1.1/cv3.1.1.1/act/Sigmoid_output_0: 3c0aafb1
/model.23/Split_1_output_1: 3e08c798
/model.23/Concat_24_output_0: 3f370904
/model.23/Add_8_output_0: 3e810a14
/model.23/Unsqueeze_9_output_0: 3e1d4449
/model.19/Split_output_0: 3ce8e2bc
/model.23/cv3.2/cv3.2.1/cv3.2.1.0/act/Mul_output_0: 3d0fa223
/model.22/m.0/cv2/act/Sigmoid_output_0: 3c06b2b3
/model.23/dfl/Softmax_output: 3ba8e178
/model.19/Split_output_1: 3c67275b
/model.23/cv3.0/cv3.0.1/cv3.0.1.0/act/Sigmoid_output_0: 3c00ed29
/model.19/m.0/cv1/conv/Conv_output_0: 3d1a7e70
/model.23/cv3.0/cv3.0.1/cv3.0.1.0/act/Mul_output_0: 3d443bb3
/model.19/m.0/cv1/act/Sigmoid_output_0: 3c020473
/model.23/cv3.0/cv3.0.1/cv3.0.1.1/conv/Conv_output_0: 3d4fd6ee
/model.19/m.0/cv1/act/Mul_output_0: 3ce764b4
/model.23/cv3.0/cv3.0.1/cv3.0.1.1/act/Sigmoid_output_0: 3c0601f9
/model.19/m.0/cv2/conv/Conv_output_0: 3d7257dc
/model.23/cv3.0/cv3.0.1/cv3.0.1.1/act/Mul_output_0: 3d11fa0f
/model.19/m.0/cv2/act/Sigmoid_output_0: 3c00d3ca
/model.23/cv3.0/cv3.0.2/Conv_output_0: 3dedb364
/model.19/m.0/cv2/act/Mul_output_0: 3d0083fe
/model.23/Concat_output_0: 3defe691
/model.19/m.0/Add_output_0: 3d4e7a0e
/model.23/cv2.2/cv2.2.1/conv/Conv_output_0: 3e177327
/model.23/Concat_2_output_0: 3dc001b7
/model.19/Concat_output_0: 3d00c3c1
ONNXTRT_Broadcast_311_output: 3b810a14
ONNXTRT_ShapeShuffle_307_output: 3c010a14
/model.23/Reshape_13_output_0: 3e1d4449
/model.19/cv2/conv/Conv_output_0: 3d76b4c1
/model.23/cv2.2/cv2.2.1/act/Mul_output_0: 3e106a39
/model.22/m.0/m/m.1/cv1/conv/Conv_output_0: 3d4be1bc
/model.23/Concat_23_output_0: 3e810a14
/model.23/cv3.2/cv3.2.2/Conv_output_0: 3daaa3e6
/model.19/cv2/act/Sigmoid_output_0: 3c01347a
/model.23/cv3.1/cv3.1.1/cv3.1.1.0/act/Sigmoid_output_0: 3c02a11a
/model.22/Split_output_1: 3cb1d41f
(Unnamed Layer* 627) [Constant]_output: 0
/model.23/Constant_14_output_0_output: 0
/model.23/Constant_15_output_0_output: 3c010a14
/model.23/Reshape_1_output_0: 3dd5ab9f
/model.22/m.0/m/m.0/cv1/act/Mul_output_0: 3c9ac741
ONNXTRT_Broadcast_244_output: 3e010a14
/model.22/m.0/m/m.1/cv1/act/Mul_output_0: 3c8878f1
/model.22/m.0/m/m.0/cv2/act/Sigmoid_output_0: 3c0827d7
/model.23/cv3.2/cv3.2.1/cv3.2.1.1/act/Mul_output_0: 3cb0e3e1
/model.23/cv3.1/cv3.1.1/cv3.1.1.0/conv/Conv_output_0: 3d4ae27a
/model.23/Range_output_0: 3f1f4871
ONNXTRT_ShapeShuffle_146_output: 3c010a14
/model.23/cv3.2/cv3.2.0/cv3.2.0.1/conv/Conv_output_0: 3ceb3899
/model.23/cv3.2/cv3.2.0/cv3.2.0.0/act/Sigmoid_output_0: 3c021c94
/model.22/m.0/cv2/act/Mul_output_0: 3c906047
/model.22/Split_output_0: 3c880a0f
/model.23/Unsqueeze_12_output_0: 3f204a85
ONNXTRT_Broadcast_319_output: 3e810a14
/model.23/Add_10_output_0: 3f21c52c
/model.23/Range_1_output_0: 3f1f4871
ONNXTRT_ShapeShuffle_156_output: 3c010a14
/model.23/cv3.1/cv3.1.1/cv3.1.1.0/act/Mul_output_0: 3d40604e
/model.19/cv2/act/Mul_output_0: 3ca4db48
/model.23/Reshape_output_0: 3defe691
/model.23/Constant_16_output_0_output: 3b810a14
ONNXTRT_Broadcast_159_output: 3b810a14
/model.23/Reshape_4_output_0: 3f204a85
ONNXTRT_Broadcast_161_output: 3b810a14
/model.23/Reshape_3_output_0: 3f204a85
/model.23/cv2.2/cv2.2.2/Conv_output_0: 3dbfd5cd
/model.22/m.0/m/m.1/cv2/act/Mul_output_0: 3d6313c8
/model.20/conv/Conv_output_0: 3d845de8
/model.23/cv2.1/cv2.1.0/conv/Conv_output_0: 3d9aadf0
/model.23/cv3.1/cv3.1.0/cv3.1.0.0/conv/Conv_output_0: 3d6a549b
(Unnamed Layer* 382) [Constant]_output: 0
ONNXTRT_ShapeShuffle_164_output: 0
/model.23/ConstantOfShape_output_0: 0
/model.23/cv2.1/cv2.1.2/Conv_output_0: 3db11c66
/model.22/cv1/act/Mul_output_0: 3c88a19f
/model.23/Reshape_7_output_0: 3f204a85
/model.23/cv3.1/cv3.1.0/cv3.1.0.1/act/Mul_output_0: 3cd25f39
/model.23/Reshape_5_output_0: 3f204a85
/model.23/Reshape_6_output_0: 3f204a85
/model.20/act/Sigmoid_output_0: 3c0b58b1
/model.23/cv2.1/cv2.1.0/act/Sigmoid_output_0: 3c037f60
/model.23/cv3.1/cv3.1.0/cv3.1.0.0/act/Sigmoid_output_0: 3c02b4ed
/model.23/Squeeze_output_0_output: 3d810a14
ONNXTRT_Broadcast_169_output: 3d810a14
/model.23/Add_2_output_0: 3d810a14
/model.23/Unsqueeze_3_output_0: 3f204a85
/model.20/act/Mul_output_0: 3cb1a681
/model.23/cv2.1/cv2.1.0/act/Mul_output_0: 3d10f118
/model.23/cv3.1/cv3.1.0/cv3.1.0.0/act/Mul_output_0: 3d40d9d7
/model.21/Concat_output_0: 3c902fb5
/model.23/Range_2_output_0: 3e9d4449
/model.23/cv3.1/cv3.1.1/cv3.1.1.1/conv/Conv_output_0: 3d3f6bdd
/model.23/dfl/conv/Conv_output_0: 3dbb9d48
/model.22/cv1/conv/Conv_output_0: 3d4214ca
/model.23/Unsqueeze_10_output_0: 3e1d4449
/model.23/dfl/Reshape_output_0: 3dea3913
/model.23/Reshape_12_output_0: 3e9f4871
/model.23/cv2.1/cv2.1.1/conv/Conv_output_0: 3e51568b
/model.22/m.0/cv1/conv/Conv_output_0: 3cc6b43e
/model.23/Expand_output_0: 3f204a85
/model.23/cv3.2/cv3.2.0/cv3.2.0.1/act/Sigmoid_output_0: 3bfa3e38
