TRT-100800-EntropyCalibration2
images: 3b66eddc
/model.0/conv/Conv_output_0: 3ea38a1a
/model.0/act/Sigmoid_output_0: 3c010a14
/model.0/act/Mul_output_0: 3e859ddc
/model.1/conv/Conv_output_0: 3f4ddd3e
/model.1/act/Sigmoid_output_0: 3c010a14
/model.1/act/Mul_output_0: 3e90c69f
/model.2/cv1/conv/Conv_output_0: 3f37f4a5
/model.2/cv1/act/Sigmoid_output_0: 3c010a14
/model.2/cv1/act/Mul_output_0: 3e8d425b
/model.23/cv3.2/cv3.2.1/cv3.2.1.1/act/Mul_output_0: 3cd08710
/model.22/m.0/m/m.0/cv2/act/Sigmoid_output_0: 3bfefda3
ONNXTRT_Broadcast_309_output: 3b810a14
/model.23/cv2.2/cv2.2.1/act/Mul_output_0: 3dc30486
/model.23/Sigmoid_output_0: 3925f6fc
/model.23/Concat_22_output_0: 3f204a85
/model.2/Split_output_0: 3e8d425b
/model.22/m.0/cv3/act/Mul_output_0: 3d019dd8
/model.23/Add_5_output_0: 3e010a14
/model.23/dfl/Reshape_1_output_0: 3ddac257
/model.2/Split_output_1: 3e8b47a5
/model.2/m.0/cv1/conv/Conv_output_0: 3db2f656
/model.2/m.0/cv1/act/Sigmoid_output_0: 3bf25747
/model.2/m.0/cv1/act/Mul_output_0: 3c1ddb8c
/model.2/m.0/cv2/conv/Conv_output_0: 3e6b3de3
/model.2/m.0/cv2/act/Sigmoid_output_0: 3c010a14
/model.2/m.0/cv2/act/Mul_output_0: 3e10aea4
/model.2/m.0/Add_output_0: 3e95f544
/model.2/Concat_output_0: 3e91c6a7
/model.2/cv2/conv/Conv_output_0: 3ec1630d
/model.2/cv2/act/Sigmoid_output_0: 3c010a14
/model.2/cv2/act/Mul_output_0: 3dc5a5ac
/model.3/conv/Conv_output_0: 3d987cca
/model.3/act/Sigmoid_output_0: 3c009932
/model.3/act/Mul_output_0: 3d961d7a
/model.4/cv1/conv/Conv_output_0: 3d921d62
/model.4/cv1/act/Sigmoid_output_0: 3bfe1357
/model.4/cv1/act/Mul_output_0: 3d0161df
/model.23/Split_1_output_0: 3df020e2
/model.23/Sub_1_output_0: 3e5a0bfd
/model.23/cv2.2/cv2.2.1/act/Sigmoid_output_0: 3c010a05
/model.23/Slice_output_0: 3dd97d36
/model.23/ConstantOfShape_2_output_0: 0
/model.23/cv3.1/cv3.1.1/cv3.1.1.1/act/Mul_output_0: 3d24ea95
/model.4/Split_output_0: 3d0135bd
/model.23/dfl/Transpose_output_0: 3df020e2
/model.23/dfl/Reshape_output_0: 3df020e2
/model.23/Range_4_output_0: 3e193bf8
/model.4/Split_output_1: 3cc10d6e
/model.4/m.0/cv1/conv/Conv_output_0: 3cd27044
/model.4/m.0/cv1/act/Sigmoid_output_0: 3c0491d4
/model.4/m.0/cv1/act/Mul_output_0: 3cd0ca35
/model.4/m.0/cv2/conv/Conv_output_0: 3d423b5d
/model.4/m.0/cv2/act/Sigmoid_output_0: 3c0078ce
/model.4/m.0/cv2/act/Mul_output_0: 3d24696a
/model.4/m.0/Add_output_0: 3d53fe11
/model.4/Concat_output_0: 3d41ce5b
/model.4/cv2/conv/Conv_output_0: 3d91b41d
/model.4/cv2/act/Sigmoid_output_0: 3bfc13a5
/model.4/cv2/act/Mul_output_0: 3c90e1d1
/model.5/conv/Conv_output_0: 3d6b2ae5
/model.5/act/Sigmoid_output_0: 3c014ef6
/model.5/act/Mul_output_0: 3cb0d2be
/model.6/cv1/conv/Conv_output_0: 3dc133ca
/model.6/cv1/act/Sigmoid_output_0: 3c003cc2
/model.6/cv1/act/Mul_output_0: 3ce81185
/model.23/Reshape_2_output_0: 3dfa18d1
(Unnamed Layer* 627) [Constant]_output: 0
/model.22/m.0/m/m.0/cv1/conv/Conv_output_0: 3d3bdf57
/model.23/cv2.1/cv2.1.1/conv/Conv_output_0: 3e1a932c
/model.22/cv1/act/Mul_output_0: 3c99a80c
/model.22/cv1/conv/Conv_output_0: 3d49eaa3
/model.6/Split_output_0: 3ce81185
output0: 40a024fa
ONNXTRT_ShapeShuffle_314_output: 0
/model.23/Concat_23_output_0: 3e810a14
/model.6/Split_output_1: 3cd45e37
/model.6/m.0/cv1/conv/Conv_output_0: 3d00d270
/model.6/m.0/cv2/conv/Conv_output_0: 3dc54c79
/model.6/m.0/cv1/act/Sigmoid_output_0: 3bfdbb29
/model.6/m.0/cv2/act/Sigmoid_output_0: 3c0727e0
/model.6/m.0/cv1/act/Mul_output_0: 3cbfd9da
/model.6/m.0/cv2/act/Mul_output_0: 3cd189e2
/model.6/m.0/m/m.0/cv1/conv/Conv_output_0: 3d59c1ee
/model.6/m.0/m/m.0/cv1/act/Sigmoid_output_0: 3bfb8b09
/model.6/m.0/m/m.0/cv1/act/Mul_output_0: 3ca43f7d
/model.6/m.0/m/m.0/cv2/conv/Conv_output_0: 3d328312
/model.6/m.0/m/m.0/cv2/act/Sigmoid_output_0: 3c05305e
/model.6/m.0/m/m.0/cv2/act/Mul_output_0: 3d011764
/model.6/m.0/m/m.0/Add_output_0: 3d7def93
/model.6/m.0/m/m.1/cv1/conv/Conv_output_0: 3d53cc29
/model.6/m.0/m/m.1/cv1/act/Sigmoid_output_0: 3c010075
/model.6/m.0/m/m.1/cv1/act/Mul_output_0: 3c740631
/model.6/m.0/m/m.1/cv2/conv/Conv_output_0: 3d8602d3
/model.6/m.0/m/m.1/cv2/act/Sigmoid_output_0: 3c04a4dc
/model.6/m.0/m/m.1/cv2/act/Mul_output_0: 3d40c57c
/model.6/m.0/m/m.1/Add_output_0: 3dbf0870
/model.6/m.0/Concat_output_0: 3d689431
/model.6/m.0/cv3/conv/Conv_output_0: 3d809ab7
/model.6/m.0/cv3/act/Sigmoid_output_0: 3c0d5476
/model.6/m.0/cv3/act/Mul_output_0: 3d01a501
/model.6/Concat_output_0: 3ce8794b
/model.6/cv2/conv/Conv_output_0: 3d58e5e8
/model.6/cv2/act/Sigmoid_output_0: 3c00eb3a
/model.6/cv2/act/Mul_output_0: 3cbfb85c
/model.7/conv/Conv_output_0: 3d8508c7
/model.7/act/Sigmoid_output_0: 3c009de0
/model.7/act/Mul_output_0: 3d00ed91
/model.8/cv1/conv/Conv_output_0: 3db6e17f
/model.8/cv1/act/Sigmoid_output_0: 3c00a43e
/model.8/cv1/act/Mul_output_0: 3d26532d
/model.23/cv3.2/cv3.2.2/Conv_output_0: 3e003fac
/model.23/Expand_1_output_0: 3f204a85
/model.23/Unsqueeze_6_output_0: 3e9f4871
/model.23/Reshape_17_output_0: 3e1d4449
/model.23/Reshape_12_output_0: 3e9f4871
/model.22/m.0/m/m.1/cv2/act/Mul_output_0: 3d25fc2e
/model.8/Split_output_0: 3d253861
/model.23/Add_8_output_0: 3e810a14
/model.23/Add_11_output_0: 3fabde38
/model.23/cv3.2/cv3.2.1/cv3.2.1.1/act/Sigmoid_output_0: 3c086e1b
/model.8/Split_output_1: 3d108550
/model.8/m.0/cv1/conv/Conv_output_0: 3d3458a4
/model.8/m.0/cv2/conv/Conv_output_0: 3da470a0
/model.8/m.0/cv1/act/Sigmoid_output_0: 3c04b78d
/model.8/m.0/cv2/act/Sigmoid_output_0: 3c010581
/model.8/m.0/cv1/act/Mul_output_0: 3cd33135
/model.8/m.0/cv2/act/Mul_output_0: 3d41bfce
/model.8/m.0/m/m.0/cv1/conv/Conv_output_0: 3d85895d
/model.8/m.0/m/m.0/cv1/act/Sigmoid_output_0: 3c00dadd
/model.8/m.0/m/m.0/cv1/act/Mul_output_0: 3d0ea93d
/model.8/m.0/m/m.0/cv2/conv/Conv_output_0: 3d87e9c2
/model.8/m.0/m/m.0/cv2/act/Sigmoid_output_0: 3c00b4ad
/model.8/m.0/m/m.0/cv2/act/Mul_output_0: 3d10addd
/model.8/m.0/m/m.0/Add_output_0: 3d65eaf6
/model.8/m.0/m/m.1/cv1/conv/Conv_output_0: 3d724b78
/model.8/m.0/m/m.1/cv1/act/Sigmoid_output_0: 3c003161
/model.8/m.0/m/m.1/cv1/act/Mul_output_0: 3ce692e4
/model.8/m.0/m/m.1/cv2/conv/Conv_output_0: 3dd5976e
/model.8/m.0/m/m.1/cv2/act/Sigmoid_output_0: 3c0107b9
/model.8/m.0/m/m.1/cv2/act/Mul_output_0: 3d8eec83
/model.8/m.0/m/m.1/Add_output_0: 3daac47b
/model.8/m.0/Concat_output_0: 3d901622
/model.8/m.0/cv3/conv/Conv_output_0: 3d673268
/model.8/m.0/cv3/act/Sigmoid_output_0: 3c0071b5
/model.8/m.0/cv3/act/Mul_output_0: 3cd066d5
/model.8/Concat_output_0: 3d1081de
/model.8/cv2/conv/Conv_output_0: 3d8b832d
/model.8/cv2/act/Sigmoid_output_0: 3c00c94c
/model.8/cv2/act/Mul_output_0: 3d25043a
/model.9/cv1/conv/Conv_output_0: 3d5eb7f0
/model.9/cv1/act/Sigmoid_output_0: 3c00d608
/model.9/cv1/act/Mul_output_0: 3d5e95bb
/model.9/m/MaxPool_output_0: 3d5e95bb
/model.9/m_1/MaxPool_output_0: 3d5e95bb
/model.9/m_2/MaxPool_output_0: 3d5e95bb
/model.9/Concat_output_0: 3d5e95bb
/model.9/cv2/conv/Conv_output_0: 3d5a78b3
/model.9/cv2/act/Sigmoid_output_0: 3bfd095b
/model.9/cv2/act/Mul_output_0: 3c5b04ac
/model.10/cv1/conv/Conv_output_0: 3dc52cde
/model.10/cv1/act/Sigmoid_output_0: 3c01091b
/model.10/cv1/act/Mul_output_0: 3d254710
/model.23/Reshape_9_output_0: 3e9f4871
/model.22/m.0/m/m.1/cv1/conv/Conv_output_0: 3d0125bb
/model.23/Reshape_13_output_0: 3e1d4449
/model.23/cv3.2/cv3.2.1/cv3.2.1.0/act/Mul_output_0: 3ce404f1
/model.23/cv3.2/cv3.2.1/cv3.2.1.1/conv/Conv_output_0: 3d0eb4a1
/model.23/Reshape_8_output_0: 3e9f4871
/model.10/Split_output_0: 3cffa2bc
/model.23/cv3.2/cv3.2.0/cv3.2.0.1/act/Mul_output_0: 3ca52054
/model.23/cv3.2/cv3.2.0/cv3.2.0.1/act/Sigmoid_output_0: 3bf9fffe
/model.23/Reshape_15_output_0: 3e1d4449
/model.10/Split_output_1: 3d65621d
/model.23/Range_5_output_0: 3e193bf8
ONNXTRT_ShapeShuffle_239_output: 0
/model.10/m/m.0/attn/qkv/conv/Conv_output_0: 3d628dc4
ONNXTRT_Broadcast_319_output: 3e810a14
/model.23/Concat_2_output_0: 3dfa18d1
/model.22/cv2/act/Mul_output_0: 3cd0fe76
ONNXTRT_Broadcast_426_output: 3e810a14
/model.22/m.0/m/m.1/cv1/act/Mul_output_0: 3c5b78b6
/model.22/cv2/act/Sigmoid_output_0: 3c00d277
/model.22/cv2/conv/Conv_output_0: 3d6b0da2
/model.23/cv3.2/cv3.2.0/cv3.2.0.0/act/Mul_output_0: 3d41adbf
/model.23/cv2.2/cv2.2.0/conv/Conv_output_0: 3d79ea10
ONNXTRT_Broadcast_419_output: 3c810a14
(Unnamed Layer* 505) [Constant]_output: 0
/model.22/Concat_output_0: 3c99c241
/model.23/cv2.2/cv2.2.0/act/Mul_output_0: 3d2594ba
/model.23/Unsqueeze_9_output_0: 3e1d4449
/model.23/cv2.2/cv2.2.0/act/Sigmoid_output_0: 3c03f4a6
/model.22/m.0/cv3/act/Sigmoid_output_0: 3c00c32c
/model.10/m/m.0/attn/Reshape_output_0: 3d628dc4
/model.22/m.0/Concat_output_0: 3d6828b6
/model.22/m.0/m/m.1/Add_output_0: 3d91ed72
/model.23/Unsqueeze_12_output_0: 3f204a85
/model.23/Concat_24_output_0: 3f21651c
ONNXTRT_Broadcast_311_output: 3b810a14
/model.23/cv3.2/cv3.2.1/cv3.2.1.0/act/Sigmoid_output_0: 3c01e5b2
/model.10/m/m.0/attn/Split_output_0: 3d106477
/model.23/cv2.1/cv2.1.2/Conv_output_0: 3da1c2be
/model.23/Expand_3_output_0: 3e9f4871
/model.23/Concat_20_output_0: 3e1d4449
/model.10/m/m.0/attn/Split_output_1: 3d6d50b8
/model.23/Concat_15_output_0: 3e9f4871
/model.23/Reshape_16_output_0: 3e1d4449
/model.23/dfl/Softmax_output_0: 3bc29e25
/model.10/m/m.0/attn/Split_output_2: 3d5ff34f
/model.10/m/m.0/attn/Transpose_output_0: 3d106477
/model.10/m/m.0/attn/Reshape_2_output_0: 3d5ff34f
/model.10/m/m.0/attn/MatMul_output_0: 3f036b57
/model.10/m/m.0/attn/pe/conv/Conv_output_0: 3d351766
/model.10/m/m.0/attn/Constant_6_output_0_output: 3ab67d3d
ONNXTRT_Broadcast_output: 3ab67d3d
/model.10/m/m.0/attn/Mul_1_output_0: 3db9dade
/model.10/m/m.0/attn/Softmax_output: 39b45cd5
/model.10/m/m.0/attn/Softmax_output_0: 39b45cd5
/model.22/m.0/cv3/conv/Conv_output_0: 3d7602f3
/model.23/Expand_2_output_0: 3e9f4871
/model.10/m/m.0/attn/Transpose_1_output_0: 39b45cd5
/model.10/m/m.0/attn/MatMul_1_output_0: 3d3885ea
/model.10/m/m.0/attn/Reshape_1_output_0: 3d3885ea
/model.10/m/m.0/attn/Add_output_0: 3d30267a
/model.10/m/m.0/attn/proj/conv/Conv_output_0: 3cf33968
/model.10/m/m.0/Add_output_0: 3d9a5068
/model.10/m/m.0/ffn/ffn.0/conv/Conv_output_0: 3d1da583
/model.10/m/m.0/ffn/ffn.0/act/Sigmoid_output_0: 3bddb969
/model.10/m/m.0/ffn/ffn.0/act/Mul_output_0: 3b106256
/model.10/m/m.0/ffn/ffn.1/conv/Conv_output_0: 3c315678
/model.10/m/m.0/Add_1_output_0: 3d91ad10
/model.10/Concat_output_0: 3d248034
/model.10/cv2/conv/Conv_output_0: 3d3d6f1e
/model.10/cv2/act/Sigmoid_output_0: 3bf95d4d
/model.10/cv2/act/Mul_output_0: 3c73caea
/model.11/Resize_output_0: 3c73caea
/model.12/Concat_output_0: 3c878830
/model.13/cv1/conv/Conv_output_0: 3d5aa1ef
/model.13/cv1/act/Sigmoid_output_0: 3bffafa7
/model.13/cv1/act/Mul_output_0: 3cb1567b
/model.23/Slice_1_output_0: 3ddac257
/model.23/cv3.1/cv3.1.0/cv3.1.0.1/conv/Conv_output_0: 3d105b67
/model.23/Add_10_output_0: 3f219450
/model.23/Expand_5_output_0: 3e1d4449
/model.23/Unsqueeze_10_output_0: 3e1d4449
/model.23/dfl/Softmax_output: 3bc29e25
/model.13/Split_output_0: 3cb1471c
/model.23/cv3.1/cv3.1.0/cv3.1.0.1/act/Sigmoid_output_0: 3c0110cc
/model.23/Unsqueeze_4_output_0: 3f204a85
/model.23/Reshape_7_output_0: 3f204a85
/model.13/Split_output_1: 3c8136f7
/model.13/m.0/cv1/conv/Conv_output_0: 3d039281
/model.13/m.0/cv1/act/Sigmoid_output_0: 3bef7145
/model.13/m.0/cv1/act/Mul_output_0: 3c66172c
/model.13/m.0/cv2/conv/Conv_output_0: 3d1a2f99
/model.13/m.0/cv2/act/Sigmoid_output_0: 3bfe671c
/model.13/m.0/cv2/act/Mul_output_0: 3ce6c05c
/model.13/m.0/Add_output_0: 3d24c6e1
/model.13/Concat_output_0: 3cd1d1f8
/model.13/cv2/conv/Conv_output_0: 3d15ddca
/model.13/cv2/act/Sigmoid_output_0: 3bf73d1e
/model.13/cv2/act/Mul_output_0: 3c402acf
/model.14/Resize_output_0: 3c402acf
/model.15/Concat_output_0: 3c90e1d1
/model.16/cv1/conv/Conv_output_0: 3d517bd5
/model.16/cv1/act/Sigmoid_output_0: 3c0166d4
/model.16/cv1/act/Mul_output_0: 3c9ada6d
/model.23/Split_1_output_1: 3e562937
ONNXTRT_Broadcast_244_output: 3e010a14
/model.22/m.0/m/m.1/cv2/conv/Conv_output_0: 3d7cb2c6
/model.23/Reshape_11_output_0: 3e9f4871
/model.23/dfl/conv/Conv_output_0: 3ddac257
/model.22/Split_output_0: 3cb320ef
/model.16/Split_output_0: 3ca4fc70
/model.23/Transpose_output_0: 3f204a85
/model.23/Sub_output_0: 3f2636d1
ONNXTRT_ShapeShuffle_222_output: 3c010a14
/model.16/Split_output_1: 3c9059a9
/model.16/m.0/cv1/conv/Conv_output_0: 3d1f310c
/model.16/m.0/cv1/act/Sigmoid_output_0: 3c0026d9
/model.16/m.0/cv1/act/Mul_output_0: 3ce71e0b
/model.16/m.0/cv2/conv/Conv_output_0: 3d7c2104
/model.16/m.0/cv2/act/Sigmoid_output_0: 3c004f91
/model.16/m.0/cv2/act/Mul_output_0: 3cd10957
/model.16/m.0/Add_output_0: 3cff819e
/model.16/Concat_output_0: 3cd2557d
/model.16/cv2/conv/Conv_output_0: 3d4be505
/model.16/cv2/act/Sigmoid_output_0: 3bfea532
/model.16/cv2/act/Mul_output_0: 3cd20b0d
/model.17/conv/Conv_output_0: 3d5952ff
/model.23/cv2.0/cv2.0.0/conv/Conv_output_0: 3d77869d
/model.23/cv3.0/cv3.0.0/cv3.0.0.0/conv/Conv_output_0: 3d75a3a6
/model.17/act/Sigmoid_output_0: 3bff7c3a
/model.23/cv2.0/cv2.0.0/act/Sigmoid_output_0: 3c007ae4
/model.23/cv3.0/cv3.0.0/cv3.0.0.0/act/Sigmoid_output_0: 3c0a550f
/model.17/act/Mul_output_0: 3c9045c7
/model.23/cv2.0/cv2.0.0/act/Mul_output_0: 3c99ecc2
/model.23/cv3.0/cv3.0.0/cv3.0.0.0/act/Mul_output_0: 3d1237ba
/model.18/Concat_output_0: 3c51ee2e
/model.23/cv2.0/cv2.0.1/conv/Conv_output_0: 3e416a77
/model.23/cv3.0/cv3.0.0/cv3.0.0.1/conv/Conv_output_0: 3d3efbe5
/model.19/cv1/conv/Conv_output_0: 3d3a7c98
/model.23/cv2.0/cv2.0.1/act/Sigmoid_output_0: 3c010a14
/model.23/cv3.0/cv3.0.0/cv3.0.0.1/act/Sigmoid_output_0: 3c04ecfc
/model.19/cv1/act/Sigmoid_output_0: 3c003f9b
/model.23/cv2.0/cv2.0.1/act/Mul_output_0: 3dbcf8ec
/model.23/cv3.0/cv3.0.0/cv3.0.0.1/act/Mul_output_0: 3d129043
/model.19/cv1/act/Mul_output_0: 3cd23ef8
/model.23/cv2.0/cv2.0.2/Conv_output_0: 3df111e5
/model.23/cv3.0/cv3.0.1/cv3.0.1.0/conv/Conv_output_0: 3d846d4d
/model.23/cv3.2/cv3.2.0/cv3.2.0.1/conv/Conv_output_0: 3cdccdd0
ONNXTRT_Broadcast_236_output: 3b810a14
/model.22/m.0/m/m.1/cv1/act/Sigmoid_output_0: 3bff3103
ONNXTRT_ShapeShuffle_297_output: 3c010a14
/model.23/ConstantOfShape_1_output_0: 0
ONNXTRT_Broadcast_234_output: 3b810a14
/model.19/Split_output_0: 3cd23ef8
ONNXTRT_ShapeShuffle_232_output: 3c010a14
/model.23/Reshape_10_output_0: 3e9f4871
/model.23/Unsqueeze_3_output_0: 3f204a85
/model.19/Split_output_1: 3c520247
/model.23/cv3.0/cv3.0.1/cv3.0.1.0/act/Sigmoid_output_0: 3c09a1b4
/model.19/m.0/cv1/conv/Conv_output_0: 3d2be037
/model.23/cv3.0/cv3.0.1/cv3.0.1.0/act/Mul_output_0: 3d6a3dad
/model.19/m.0/cv1/act/Sigmoid_output_0: 3c0d864e
/model.23/cv3.0/cv3.0.1/cv3.0.1.1/conv/Conv_output_0: 3d7fa38c
/model.19/m.0/cv1/act/Mul_output_0: 3cc0b4e5
/model.23/cv3.0/cv3.0.1/cv3.0.1.1/act/Sigmoid_output_0: 3c00cd2c
/model.19/m.0/cv2/conv/Conv_output_0: 3d5c254a
/model.23/cv3.0/cv3.0.1/cv3.0.1.1/act/Mul_output_0: 3d27d511
/model.19/m.0/cv2/act/Sigmoid_output_0: 3c0085b0
/model.23/cv3.0/cv3.0.2/Conv_output_0: 3e498ebe
/model.19/m.0/cv2/act/Mul_output_0: 3cfff625
/model.23/Concat_output_0: 3e527a18
/model.19/m.0/Add_output_0: 3d3168b3
/model.23/cv3.1/cv3.1.1/cv3.1.1.1/conv/Conv_output_0: 3d48bf0d
/model.23/cv3.1/cv3.1.1/cv3.1.1.0/act/Mul_output_0: 3d415a5c
/model.19/Concat_output_0: 3ce6a5d5
/model.22/m.0/m/m.0/Add_output_0: 3d0724a9
/model.23/Reshape_1_output_0: 3e382d84
/model.22/m.0/m/m.0/cv2/act/Mul_output_0: 3cbf9e66
/model.19/cv2/conv/Conv_output_0: 3d647fcb
/model.23/Range_2_output_0: 3e9d4449
/model.22/m.0/m/m.0/cv1/act/Sigmoid_output_0: 3bfef797
/model.23/cv3.1/cv3.1.2/Conv_output_0: 3e5c72c7
/model.23/cv2.1/cv2.1.1/act/Sigmoid_output_0: 3c011223
/model.19/cv2/act/Sigmoid_output_0: 3c000f36
/model.23/Transpose_1_output_0: 3e810a14
/model.22/m.0/cv2/act/Mul_output_0: 3ce76d67
/model.22/m.0/m/m.1/cv2/act/Sigmoid_output_0: 3c01070c
/model.23/Constant_14_output_0_output: 0
/model.23/Constant_15_output_0_output: 3c010a14
/model.23/Unsqueeze_7_output_0: 3e9f4871
/model.23/cv3.1/cv3.1.0/cv3.1.0.1/act/Mul_output_0: 3d012373
/model.23/Constant_67_output_0_output: 3c810a14
/model.23/Reshape_14_output_0: 3e1d4449
/model.23/cv3.2/cv3.2.1/cv3.2.1.0/conv/Conv_output_0: 3d148822
/model.23/Concat_6_output_0: 3e498ebe
/model.23/cv3.2/cv3.2.0/cv3.2.0.0/act/Sigmoid_output_0: 3c0332d0
/model.23/Range_output_0: 3f1f4871
ONNXTRT_ShapeShuffle_146_output: 3c010a14
/model.23/cv2.2/cv2.2.1/conv/Conv_output_0: 3dd5b15e
/model.22/m.0/m/m.0/cv1/act/Mul_output_0: 3c908090
/model.23/Div_1_output_0: 3f2bde38
/model.23/cv2.1/cv2.1.1/act/Mul_output_0: 3dc39435
/model.23/Concat_1_output_0: 3e382d84
/model.21/Concat_output_0: 3c9b2044
/model.23/cv3.2/cv3.2.0/cv3.2.0.0/conv/Conv_output_0: 3d6aec86
/model.23/Range_1_output_0: 3f1f4871
ONNXTRT_ShapeShuffle_156_output: 3c010a14
/model.23/Range_3_output_0: 3e9d4449
/model.19/cv2/act/Mul_output_0: 3cbfad80
/model.23/Reshape_output_0: 3e527a18
/model.23/Constant_16_output_0_output: 3b810a14
ONNXTRT_Broadcast_159_output: 3b810a14
/model.23/Reshape_4_output_0: 3f204a85
ONNXTRT_Broadcast_161_output: 3b810a14
/model.23/Reshape_3_output_0: 3f204a85
/model.23/Squeeze_1_output_0_output: 3e010a14
/model.23/Concat_10_output_0: 3f204a85
/model.20/conv/Conv_output_0: 3d2b0a63
/model.23/cv2.1/cv2.1.0/conv/Conv_output_0: 3dacb3aa
/model.23/cv3.1/cv3.1.0/cv3.1.0.0/conv/Conv_output_0: 3d96afd0
(Unnamed Layer* 382) [Constant]_output: 0
ONNXTRT_ShapeShuffle_164_output: 0
/model.23/ConstantOfShape_output_0: 0
/model.22/m.0/cv2/conv/Conv_output_0: 3d11f85d
/model.22/m.0/cv1/conv/Conv_output_0: 3c9e1b77
/model.23/cv3.1/cv3.1.1/cv3.1.1.0/conv/Conv_output_0: 3d839f4d
/model.22/m.0/m/m.0/cv2/conv/Conv_output_0: 3d2ad722
/model.23/Reshape_5_output_0: 3f204a85
/model.23/Reshape_6_output_0: 3f204a85
/model.20/act/Sigmoid_output_0: 3c0cc644
/model.23/cv2.1/cv2.1.0/act/Sigmoid_output_0: 3c00c1dd
/model.23/cv3.1/cv3.1.0/cv3.1.0.0/act/Sigmoid_output_0: 3c03e4a6
/model.23/Squeeze_output_0_output: 3d810a14
ONNXTRT_Broadcast_169_output: 3d810a14
/model.23/Add_2_output_0: 3d810a14
/model.23/cv3.1/cv3.1.1/cv3.1.1.1/act/Sigmoid_output_0: 3c0174b3
/model.20/act/Mul_output_0: 3cc1f230
/model.23/cv2.1/cv2.1.0/act/Mul_output_0: 3d0f7b5a
/model.23/cv3.1/cv3.1.0/cv3.1.0.0/act/Mul_output_0: 3d43b171
/model.22/Split_output_1: 3c99a80c
/model.23/Mul_5_output_0: 40a024fa
/model.22/m.0/cv1/act/Mul_output_0: 3bf2462d
/model.22/m.0/cv2/act/Sigmoid_output_0: 3c039c18
/model.23/Expand_4_output_0: 3e1d4449
/model.23/cv3.1/cv3.1.1/cv3.1.1.0/act/Sigmoid_output_0: 3c061fa4
/model.23/Squeeze_2_output_0_output: 3e810a14
ONNXTRT_ShapeShuffle_307_output: 3c010a14
/model.23/cv2.2/cv2.2.2/Conv_output_0: 3dac45b2
/model.22/cv1/act/Sigmoid_output_0: 3c00d8fd
/model.23/Expand_output_0: 3f204a85
/model.22/m.0/cv1/act/Sigmoid_output_0: 3bf33665
