TRT-100800-EntropyCalibration2
images: 3b66eddc
/model.0/conv/Conv_output_0: 3eaa9d0f
/model.0/act/Sigmoid_output_0: 3c010a14
/model.0/act/Mul_output_0: 3e81f036
/model.1/conv/Conv_output_0: 3f391d9d
/model.1/act/Sigmoid_output_0: 3c010a14
/model.1/act/Mul_output_0: 3ea9aab2
/model.2/cv1/conv/Conv_output_0: 3f0f8f50
/model.2/cv1/act/Sigmoid_output_0: 3c010a14
/model.2/cv1/act/Mul_output_0: 3e925fb9
/model.23/Reshape_13_output_0: 3e1d4449
/model.22/cv2/conv/Conv_output_0: 3d902ca7
/model.23/Transpose_output_0: 3f204a85
/model.23/Slice_output_0: 3de20669
ONNXTRT_Broadcast_236_output: 3b810a14
/model.23/Reshape_12_output_0: 3e9f4871
/model.2/Split_output_0: 3e8584cc
/model.23/ConstantOfShape_2_output_0: 0
/model.22/m.0/m/m.1/cv2/act/Sigmoid_output_0: 3c09a312
/model.23/Range_5_output_0: 3e193bf8
/model.2/Split_output_1: 3e84edd3
/model.2/m.0/cv1/conv/Conv_output_0: 3dfb5d3c
/model.2/m.0/cv1/act/Sigmoid_output_0: 3bf64a6e
/model.2/m.0/cv1/act/Mul_output_0: 3c2055ce
/model.2/m.0/cv2/conv/Conv_output_0: 3e9ed85d
/model.2/m.0/cv2/act/Sigmoid_output_0: 3c010a14
/model.2/m.0/cv2/act/Mul_output_0: 3e86aa2a
/model.2/m.0/Add_output_0: 3eb9fcda
/model.2/Concat_output_0: 3e93272c
/model.2/cv2/conv/Conv_output_0: 3f0c0ef2
/model.2/cv2/act/Sigmoid_output_0: 3c010a14
/model.2/cv2/act/Mul_output_0: 3dcc09b3
/model.3/conv/Conv_output_0: 3dcce09a
/model.3/act/Sigmoid_output_0: 3c010a14
/model.3/act/Mul_output_0: 3d90a9e1
/model.4/cv1/conv/Conv_output_0: 3db2a544
/model.4/cv1/act/Sigmoid_output_0: 3c0089df
/model.4/cv1/act/Mul_output_0: 3d101afe
/model.23/Unsqueeze_7_output_0: 3e9f4871
/model.23/Transpose_1_output_0: 3e810a14
/model.23/Concat_1_output_0: 3de71f77
/model.23/Div_1_output_0: 3f20564b
/model.23/Concat_6_output_0: 3dee082f
/model.23/Add_10_output_0: 3f21c66a
/model.4/Split_output_0: 3d105ede
ONNXTRT_Broadcast_309_output: 3b810a14
/model.23/Add_5_output_0: 3e010a14
/model.23/Reshape_2_output_0: 3dbb402e
/model.4/Split_output_1: 3cff982e
/model.4/m.0/cv1/conv/Conv_output_0: 3d2dc464
/model.4/m.0/cv1/act/Sigmoid_output_0: 3c0083a7
/model.4/m.0/cv1/act/Mul_output_0: 3cd2deb9
/model.4/m.0/cv2/conv/Conv_output_0: 3d7359af
/model.4/m.0/cv2/act/Sigmoid_output_0: 3c00a208
/model.4/m.0/cv2/act/Mul_output_0: 3d433bff
/model.4/m.0/Add_output_0: 3d691df7
/model.4/Concat_output_0: 3d3d879c
/model.4/cv2/conv/Conv_output_0: 3da4bebf
/model.4/cv2/act/Sigmoid_output_0: 3c03ed8b
/model.4/cv2/act/Mul_output_0: 3c909e80
/model.5/conv/Conv_output_0: 3d88393c
/model.5/act/Sigmoid_output_0: 3c00079e
/model.5/act/Mul_output_0: 3cd2a5cf
/model.6/cv1/conv/Conv_output_0: 3df78bb1
/model.6/cv1/act/Sigmoid_output_0: 3c029dd7
/model.6/cv1/act/Mul_output_0: 3d10e1a8
/model.22/m.0/m/m.1/cv1/conv/Conv_output_0: 3d3cb91c
/model.22/m.0/cv3/act/Mul_output_0: 3d25247c
/model.23/Expand_3_output_0: 3e9f4871
/model.22/m.0/m/m.1/Add_output_0: 3dbf7362
/model.23/Unsqueeze_6_output_0: 3e9f4871
/model.22/cv2/act/Mul_output_0: 3d120f00
/model.6/Split_output_0: 3ce70bd6
/model.23/Reshape_8_output_0: 3e9f4871
/model.23/Concat_24_output_0: 3f20564b
/model.23/cv3.2/cv3.2.2/Conv_output_0: 3dce1352
/model.6/Split_output_1: 3d10d855
/model.6/m.0/cv1/conv/Conv_output_0: 3d140075
/model.6/m.0/cv2/conv/Conv_output_0: 3d8ba90c
/model.6/m.0/cv1/act/Sigmoid_output_0: 3bfdff7a
/model.6/m.0/cv2/act/Sigmoid_output_0: 3c010622
/model.6/m.0/cv1/act/Mul_output_0: 3cd1868d
/model.6/m.0/cv2/act/Mul_output_0: 3d91aa21
/model.6/m.0/m/m.0/cv1/conv/Conv_output_0: 3d4df8fa
/model.6/m.0/m/m.0/cv1/act/Sigmoid_output_0: 3bff4f4f
/model.6/m.0/m/m.0/cv1/act/Mul_output_0: 3ca53482
/model.6/m.0/m/m.0/cv2/conv/Conv_output_0: 3d5f17e0
/model.6/m.0/m/m.0/cv2/act/Sigmoid_output_0: 3c084ba0
/model.6/m.0/m/m.0/cv2/act/Mul_output_0: 3cff6465
/model.6/m.0/m/m.0/Add_output_0: 3d3d9df8
/model.6/m.0/m/m.1/cv1/conv/Conv_output_0: 3d366952
/model.6/m.0/m/m.1/cv1/act/Sigmoid_output_0: 3c0cf190
/model.6/m.0/m/m.1/cv1/act/Mul_output_0: 3c800dea
/model.6/m.0/m/m.1/cv2/conv/Conv_output_0: 3d86aac8
/model.6/m.0/m/m.1/cv2/act/Sigmoid_output_0: 3c00c466
/model.6/m.0/m/m.1/cv2/act/Mul_output_0: 3d41650a
/model.6/m.0/m/m.1/Add_output_0: 3d997332
/model.6/m.0/Concat_output_0: 3d8f323d
/model.6/m.0/cv3/conv/Conv_output_0: 3d8936da
/model.6/m.0/cv3/act/Sigmoid_output_0: 3c028e04
/model.6/m.0/cv3/act/Mul_output_0: 3cbfd6bc
/model.6/Concat_output_0: 3d10e1a8
/model.6/cv2/conv/Conv_output_0: 3d80c065
/model.6/cv2/act/Sigmoid_output_0: 3c00b62a
/model.6/cv2/act/Mul_output_0: 3cb1e23d
/model.7/conv/Conv_output_0: 3dc1dd58
/model.7/act/Sigmoid_output_0: 3c01bbf6
/model.7/act/Mul_output_0: 3cd44f71
/model.8/cv1/conv/Conv_output_0: 3daf81a5
/model.8/cv1/act/Sigmoid_output_0: 3c03119c
/model.8/cv1/act/Mul_output_0: 3d001cb3
/model.23/Reshape_7_output_0: 3f204a85
/model.23/cv2.1/cv2.1.1/act/Mul_output_0: 3e14477a
/model.23/cv3.2/cv3.2.1/cv3.2.1.1/act/Sigmoid_output_0: 3c010a52
/model.23/Reshape_17_output_0: 3e1d4449
/model.23/cv3.2/cv3.2.0/cv3.2.0.1/act/Mul_output_0: 3cd16f42
/model.23/Expand_2_output_0: 3e9f4871
/model.8/Split_output_0: 3d0f8cc5
/model.23/Slice_1_output_0: 3db7a275
(Unnamed Layer* 627) [Constant]_output: 0
/model.23/cv2.2/cv2.2.0/act/Sigmoid_output_0: 3c010614
/model.8/Split_output_1: 3ce63690
/model.8/m.0/cv1/conv/Conv_output_0: 3d6d2535
/model.8/m.0/cv2/conv/Conv_output_0: 3dba2301
/model.8/m.0/cv1/act/Sigmoid_output_0: 3c14c4e9
/model.8/m.0/cv2/act/Sigmoid_output_0: 3c017d1f
/model.8/m.0/cv1/act/Mul_output_0: 3c806727
/model.8/m.0/cv2/act/Mul_output_0: 3d244f3c
/model.8/m.0/m/m.0/cv1/conv/Conv_output_0: 3d97d0b4
/model.8/m.0/m/m.0/cv1/act/Sigmoid_output_0: 3c010135
/model.8/m.0/m/m.0/cv1/act/Mul_output_0: 3d10dabe
/model.8/m.0/m/m.0/cv2/conv/Conv_output_0: 3d61476d
/model.8/m.0/m/m.0/cv2/act/Sigmoid_output_0: 3c04d131
/model.8/m.0/m/m.0/cv2/act/Mul_output_0: 3d00b686
/model.8/m.0/m/m.0/Add_output_0: 3d513ca5
/model.8/m.0/m/m.1/cv1/conv/Conv_output_0: 3d974b6c
/model.8/m.0/m/m.1/cv1/act/Sigmoid_output_0: 3c05a5ef
/model.8/m.0/m/m.1/cv1/act/Mul_output_0: 3d102944
/model.8/m.0/m/m.1/cv2/conv/Conv_output_0: 3da759e6
/model.8/m.0/m/m.1/cv2/act/Sigmoid_output_0: 3c010913
/model.8/m.0/m/m.1/cv2/act/Mul_output_0: 3d66a376
/model.8/m.0/m/m.1/Add_output_0: 3da906c3
/model.8/m.0/Concat_output_0: 3d8f67ee
/model.8/m.0/cv3/conv/Conv_output_0: 3d85521b
/model.8/m.0/cv3/act/Sigmoid_output_0: 3c00bdb5
/model.8/m.0/cv3/act/Mul_output_0: 3ce5a216
/model.8/Concat_output_0: 3d001cb3
/model.8/cv2/conv/Conv_output_0: 3dfd8d8c
/model.8/cv2/act/Sigmoid_output_0: 3c087dd8
/model.8/cv2/act/Mul_output_0: 3d110a2a
/model.9/cv1/conv/Conv_output_0: 3d8486e9
/model.9/cv1/act/Sigmoid_output_0: 3c009dea
/model.9/cv1/act/Mul_output_0: 3d66bbd3
/model.9/m/MaxPool_output_0: 3d66bbd3
/model.9/m_1/MaxPool_output_0: 3d66bbd3
/model.9/m_2/MaxPool_output_0: 3d66bbd3
/model.9/Concat_output_0: 3d66bbd3
/model.9/cv2/conv/Conv_output_0: 3d8df351
/model.9/cv2/act/Sigmoid_output_0: 3c009b5a
/model.9/cv2/act/Mul_output_0: 3cc0d872
/model.10/cv1/conv/Conv_output_0: 3db2de58
/model.10/cv1/act/Sigmoid_output_0: 3c01098e
/model.10/cv1/act/Mul_output_0: 3d66b79c
/model.23/dfl/Transpose_output_0: 3df11bf1
/model.23/cv3.2/cv3.2.0/cv3.2.0.1/act/Sigmoid_output_0: 3c0a5b2e
/model.23/Unsqueeze_10_output_0: 3e1d4449
/model.23/cv3.2/cv3.2.1/cv3.2.1.1/conv/Conv_output_0: 3d4eaa6f
/model.23/dfl/conv/Conv_output_0: 3de20669
/model.23/Range_2_output_0: 3e9d4449
/model.10/Split_output_0: 3d65ac41
/model.23/Expand_4_output_0: 3e1d4449
/model.22/m.0/m/m.1/cv2/conv/Conv_output_0: 3e14fbb9
/model.23/cv3.2/cv3.2.0/cv3.2.0.0/act/Sigmoid_output_0: 3c0eac96
/model.10/Split_output_1: 3d6913ef
/model.23/Reshape_10_output_0: 3e9f4871
/model.22/Concat_output_0: 3cff67f4
/model.10/m/m.0/attn/qkv/conv/Conv_output_0: 3d9b8a91
/model.22/m.0/m/m.1/cv1/act/Mul_output_0: 3c993ff7
/model.23/Sigmoid_output_0: 39350563
ONNXTRT_ShapeShuffle_239_output: 0
/model.23/Reshape_9_output_0: 3e9f4871
ONNXTRT_ShapeShuffle_232_output: 3c010a14
/model.23/cv2.1/cv2.1.1/conv/Conv_output_0: 3e352236
/model.23/Split_1_output_1: 3dfcb65e
ONNXTRT_Broadcast_244_output: 3e010a14
/model.23/ConstantOfShape_1_output_0: 0
ONNXTRT_ShapeShuffle_222_output: 3c010a14
/model.23/Concat_20_output_0: 3e1d4449
/model.23/Reshape_15_output_0: 3e1d4449
/model.23/Squeeze_2_output_0_output: 3e810a14
ONNXTRT_ShapeShuffle_314_output: 0
/model.23/Mul_5_output_0: 40a0564b
/model.23/cv3.1/cv3.1.0/cv3.1.0.1/conv/Conv_output_0: 3d5abd55
/model.10/m/m.0/attn/Reshape_output_0: 3d9b8a91
/model.23/cv3.1/cv3.1.1/cv3.1.1.0/conv/Conv_output_0: 3d870ef6
/model.23/dfl/Reshape_1_output_0: 3de20669
/model.22/m.0/m/m.1/cv1/act/Sigmoid_output_0: 3c02d70a
/model.23/Unsqueeze_3_output_0: 3f204a85
/model.22/m.0/m/m.0/cv2/conv/Conv_output_0: 3d23ac0c
ONNXTRT_Broadcast_419_output: 3c810a14
/model.10/m/m.0/attn/Split_output_0: 3d5b8e92
ONNXTRT_Broadcast_311_output: 3b810a14
/model.23/Reshape_14_output_0: 3e1d4449
/model.23/cv3.1/cv3.1.1/cv3.1.1.1/act/Sigmoid_output_0: 3c0a4dda
/model.10/m/m.0/attn/Split_output_1: 3db81189
ONNXTRT_ShapeShuffle_307_output: 3c010a14
/model.23/dfl/Reshape_output_0: 3df11bf1
/model.23/Unsqueeze_12_output_0: 3f204a85
/model.10/m/m.0/attn/Split_output_2: 3d9b860e
/model.10/m/m.0/attn/Transpose_output_0: 3d5b8e92
/model.10/m/m.0/attn/Reshape_2_output_0: 3d9b860e
/model.10/m/m.0/attn/MatMul_output_0: 3fcedec6
/model.10/m/m.0/attn/pe/conv/Conv_output_0: 3d6eba8a
/model.10/m/m.0/attn/Constant_6_output_0_output: 3ab67d3d
ONNXTRT_Broadcast_output: 3ab67d3d
/model.10/m/m.0/attn/Mul_1_output_0: 3e924782
/model.10/m/m.0/attn/Softmax_output: 3a2e6866
/model.10/m/m.0/attn/Softmax_output_0: 3a2e6866
/model.23/Expand_1_output_0: 3f204a85
/model.23/Sub_1_output_0: 3e47e815
/model.10/m/m.0/attn/Transpose_1_output_0: 3a2e6866
/model.10/m/m.0/attn/MatMul_1_output_0: 3d9a8763
/model.10/m/m.0/attn/Reshape_1_output_0: 3d9a8763
/model.10/m/m.0/attn/Add_output_0: 3d8c99d4
/model.10/m/m.0/attn/proj/conv/Conv_output_0: 3d56c14d
/model.10/m/m.0/Add_output_0: 3dd8c917
/model.10/m/m.0/ffn/ffn.0/conv/Conv_output_0: 3da4fd3e
/model.10/m/m.0/ffn/ffn.0/act/Sigmoid_output_0: 3c00f447
/model.10/m/m.0/ffn/ffn.0/act/Mul_output_0: 3ce62467
/model.10/m/m.0/ffn/ffn.1/conv/Conv_output_0: 3d856639
/model.10/m/m.0/Add_1_output_0: 3dee8684
/model.10/Concat_output_0: 3dc39028
/model.10/cv2/conv/Conv_output_0: 3dbe7f31
/model.10/cv2/act/Sigmoid_output_0: 3c00b34e
/model.10/cv2/act/Mul_output_0: 3cb1e5a9
/model.11/Resize_output_0: 3cb1e5a9
/model.12/Concat_output_0: 3cb40aee
/model.13/cv1/conv/Conv_output_0: 3d7bfbf0
/model.13/cv1/act/Sigmoid_output_0: 3bfe406a
/model.13/cv1/act/Mul_output_0: 3cc14618
output0: 40a0564b
/model.22/m.0/m/m.0/Add_output_0: 3d19115a
ONNXTRT_Broadcast_426_output: 3e810a14
/model.23/cv3.2/cv3.2.0/cv3.2.0.0/conv/Conv_output_0: 3da86b17
/model.23/Sub_output_0: 3f26c3ad
/model.22/m.0/Concat_output_0: 3d926a1b
/model.13/Split_output_0: 3cc14618
/model.23/cv2.2/cv2.2.1/act/Mul_output_0: 3e151458
/model.22/cv2/act/Sigmoid_output_0: 3c030b71
/model.23/Concat_15_output_0: 3e9f4871
/model.13/Split_output_1: 3c904c2e
/model.13/m.0/cv1/conv/Conv_output_0: 3d18ea7a
/model.13/m.0/cv1/act/Sigmoid_output_0: 3bf47439
/model.13/m.0/cv1/act/Mul_output_0: 3c9008b4
/model.13/m.0/cv2/conv/Conv_output_0: 3d48bcdd
/model.13/m.0/cv2/act/Sigmoid_output_0: 3bff0241
/model.13/m.0/cv2/act/Mul_output_0: 3ce80950
/model.13/m.0/Add_output_0: 3d301277
/model.13/Concat_output_0: 3ce7f593
/model.13/cv2/conv/Conv_output_0: 3d39b963
/model.13/cv2/act/Sigmoid_output_0: 3bfcbd71
/model.13/cv2/act/Mul_output_0: 3c670d63
/model.14/Resize_output_0: 3c670d63
/model.15/Concat_output_0: 3c909e80
/model.16/cv1/conv/Conv_output_0: 3d7c62e3
/model.16/cv1/act/Sigmoid_output_0: 3bf99fd3
/model.16/cv1/act/Mul_output_0: 3ca59d05
/model.23/Unsqueeze_4_output_0: 3f204a85
/model.22/m.0/m/m.0/cv2/act/Mul_output_0: 3ce7d97e
/model.21/Concat_output_0: 3cb40aee
/model.22/m.0/m/m.0/cv2/act/Sigmoid_output_0: 3c02a1a4
/model.23/Squeeze_1_output_0_output: 3e010a14
(Unnamed Layer* 505) [Constant]_output: 0
/model.16/Split_output_0: 3ca59d05
/model.23/Reshape_1_output_0: 3de71f77
/model.22/m.0/m/m.0/cv1/act/Mul_output_0: 3ca3d2f1
/model.23/cv3.1/cv3.1.2/Conv_output_0: 3de2c7a8
/model.16/Split_output_1: 3cb25d88
/model.16/m.0/cv1/conv/Conv_output_0: 3d165b50
/model.16/m.0/cv1/act/Sigmoid_output_0: 3bfee634
/model.16/m.0/cv1/act/Mul_output_0: 3cffdbf5
/model.16/m.0/cv2/conv/Conv_output_0: 3d936ea8
/model.16/m.0/cv2/act/Sigmoid_output_0: 3bfeee45
/model.16/m.0/cv2/act/Mul_output_0: 3cd28cde
/model.16/m.0/Add_output_0: 3d2f3404
/model.16/Concat_output_0: 3cc10c77
/model.16/cv2/conv/Conv_output_0: 3d609faf
/model.16/cv2/act/Sigmoid_output_0: 3c008b55
/model.16/cv2/act/Mul_output_0: 3cc23df8
/model.17/conv/Conv_output_0: 3d41ad29
/model.23/cv2.0/cv2.0.0/conv/Conv_output_0: 3d8c5b2c
/model.23/cv3.0/cv3.0.0/cv3.0.0.0/conv/Conv_output_0: 3d30273c
/model.17/act/Sigmoid_output_0: 3bff5cea
/model.23/cv2.0/cv2.0.0/act/Sigmoid_output_0: 3bfca0c2
/model.23/cv3.0/cv3.0.0/cv3.0.0.0/act/Sigmoid_output_0: 3c02606d
/model.17/act/Mul_output_0: 3c800899
/model.23/cv2.0/cv2.0.0/act/Mul_output_0: 3c900823
/model.23/cv3.0/cv3.0.0/cv3.0.0.0/act/Mul_output_0: 3d101bf3
/model.18/Concat_output_0: 3c87a3b8
/model.23/cv2.0/cv2.0.1/conv/Conv_output_0: 3e368aea
/model.23/cv3.0/cv3.0.0/cv3.0.0.1/conv/Conv_output_0: 3d3a9ebf
/model.19/cv1/conv/Conv_output_0: 3d83de28
/model.23/cv2.0/cv2.0.1/act/Sigmoid_output_0: 3c010a14
/model.23/cv3.0/cv3.0.0/cv3.0.0.1/act/Sigmoid_output_0: 3c03b0e8
/model.19/cv1/act/Sigmoid_output_0: 3c075645
/model.23/cv2.0/cv2.0.1/act/Mul_output_0: 3e0d7310
/model.23/cv3.0/cv3.0.0/cv3.0.0.1/act/Mul_output_0: 3ce60ab7
/model.19/cv1/act/Mul_output_0: 3d02544a
/model.23/cv2.0/cv2.0.2/Conv_output_0: 3dea825e
/model.23/cv3.0/cv3.0.1/cv3.0.1.0/conv/Conv_output_0: 3d82ee14
ONNXTRT_ShapeShuffle_297_output: 3c010a14
/model.23/cv3.2/cv3.2.1/cv3.2.1.0/act/Sigmoid_output_0: 3c00c93e
/model.23/Split_1_output_0: 3df11bf1
/model.22/m.0/cv3/conv/Conv_output_0: 3dad57aa
/model.22/m.0/m/m.1/cv2/act/Mul_output_0: 3d905888
/model.23/Expand_5_output_0: 3e1d4449
/model.19/Split_output_0: 3d11c90e
/model.22/m.0/m/m.0/cv1/act/Sigmoid_output_0: 3c04438c
/model.23/cv3.1/cv3.1.1/cv3.1.1.1/act/Mul_output_0: 3d013f38
/model.22/m.0/m/m.0/cv1/conv/Conv_output_0: 3d2a0f88
/model.19/Split_output_1: 3c72870b
/model.23/cv3.0/cv3.0.1/cv3.0.1.0/act/Sigmoid_output_0: 3c00f680
/model.19/m.0/cv1/conv/Conv_output_0: 3d4cd8dd
/model.23/cv3.0/cv3.0.1/cv3.0.1.0/act/Mul_output_0: 3d2665cb
/model.19/m.0/cv1/act/Sigmoid_output_0: 3bfd45aa
/model.23/cv3.0/cv3.0.1/cv3.0.1.1/conv/Conv_output_0: 3d3fd5d0
/model.19/m.0/cv1/act/Mul_output_0: 3ce80f63
/model.23/cv3.0/cv3.0.1/cv3.0.1.1/act/Sigmoid_output_0: 3c0000f5
/model.19/m.0/cv2/conv/Conv_output_0: 3d793982
/model.23/cv3.0/cv3.0.1/cv3.0.1.1/act/Mul_output_0: 3ce755f3
/model.19/m.0/cv2/act/Sigmoid_output_0: 3c061827
/model.23/cv3.0/cv3.0.2/Conv_output_0: 3deb908f
/model.19/m.0/cv2/act/Mul_output_0: 3cffdfaf
/model.23/Concat_output_0: 3deb908f
/model.19/m.0/Add_output_0: 3d4f652e
/model.22/m.0/cv2/act/Mul_output_0: 3cd1950f
/model.22/m.0/cv1/act/Mul_output_0: 3bd64d7d
/model.19/Concat_output_0: 3d02544a
/model.23/cv3.1/cv3.1.1/cv3.1.1.1/conv/Conv_output_0: 3d605d30
/model.23/cv3.1/cv3.1.1/cv3.1.1.0/act/Mul_output_0: 3d42453d
/model.22/m.0/cv2/conv/Conv_output_0: 3d3ec849
/model.19/cv2/conv/Conv_output_0: 3d6d1fd4
/model.22/m.0/cv2/act/Sigmoid_output_0: 3c00a0df
/model.23/dfl/Softmax_output: 3bcb724d
/model.23/Range_4_output_0: 3e193bf8
/model.23/cv3.2/cv3.2.1/cv3.2.1.0/act/Mul_output_0: 3d24198c
/model.19/cv2/act/Sigmoid_output_0: 3c003fee
/model.23/Constant_67_output_0_output: 3c810a14
/model.23/cv2.2/cv2.2.0/conv/Conv_output_0: 3d8ed198
/model.23/dfl/Softmax_output_0: 3bcb724d
/model.23/Constant_14_output_0_output: 0
/model.23/Constant_15_output_0_output: 3c010a14
/model.23/Concat_23_output_0: 3e810a14
/model.23/cv3.2/cv3.2.0/cv3.2.0.0/act/Mul_output_0: 3d8ff772
/model.23/Unsqueeze_9_output_0: 3e1d4449
/model.22/Split_output_0: 3cd494fd
/model.23/Concat_2_output_0: 3dbb402e
ONNXTRT_Broadcast_234_output: 3b810a14
/model.23/Range_3_output_0: 3e9d4449
/model.23/Range_output_0: 3f1f4871
ONNXTRT_ShapeShuffle_146_output: 3c010a14
/model.23/cv2.2/cv2.2.1/conv/Conv_output_0: 3e3d7ddb
/model.23/Add_11_output_0: 3fa0564b
/model.22/m.0/cv3/act/Sigmoid_output_0: 3c00eec8
/model.22/Split_output_1: 3cb181f9
/model.23/cv2.2/cv2.2.2/Conv_output_0: 3db371e1
/model.23/cv2.2/cv2.2.0/act/Mul_output_0: 3d410754
/model.23/Reshape_16_output_0: 3e1d4449
/model.23/Range_1_output_0: 3f1f4871
ONNXTRT_ShapeShuffle_156_output: 3c010a14
/model.22/m.0/cv1/conv/Conv_output_0: 3ced85ca
/model.19/cv2/act/Mul_output_0: 3cbfbfa8
/model.23/Reshape_output_0: 3deb908f
/model.23/Constant_16_output_0_output: 3b810a14
ONNXTRT_Broadcast_159_output: 3b810a14
/model.23/Reshape_4_output_0: 3f204a85
ONNXTRT_Broadcast_161_output: 3b810a14
/model.23/Reshape_3_output_0: 3f204a85
/model.22/m.0/cv1/act/Sigmoid_output_0: 3bf96f25
/model.23/cv3.1/cv3.1.1/cv3.1.1.0/act/Sigmoid_output_0: 3c02da7f
/model.20/conv/Conv_output_0: 3d90852b
/model.23/cv2.1/cv2.1.0/conv/Conv_output_0: 3da5b294
/model.23/cv3.1/cv3.1.0/cv3.1.0.0/conv/Conv_output_0: 3d814a5e
(Unnamed Layer* 382) [Constant]_output: 0
ONNXTRT_ShapeShuffle_164_output: 0
/model.23/ConstantOfShape_output_0: 0
/model.23/cv2.1/cv2.1.2/Conv_output_0: 3dd1d2ba
/model.22/cv1/act/Mul_output_0: 3cb181f9
/model.23/cv3.1/cv3.1.0/cv3.1.0.1/act/Mul_output_0: 3d11b9da
/model.22/cv1/act/Sigmoid_output_0: 3c0c3912
/model.23/Reshape_5_output_0: 3f204a85
/model.23/Reshape_6_output_0: 3f204a85
/model.20/act/Sigmoid_output_0: 3c01d072
/model.23/cv2.1/cv2.1.0/act/Sigmoid_output_0: 3c00b9bd
/model.23/cv3.1/cv3.1.0/cv3.1.0.0/act/Sigmoid_output_0: 3c01003c
/model.23/Squeeze_output_0_output: 3d810a14
ONNXTRT_Broadcast_169_output: 3d810a14
/model.23/Add_2_output_0: 3d810a14
/model.23/Concat_10_output_0: 3f204a85
/model.20/act/Mul_output_0: 3cd34165
/model.23/cv2.1/cv2.1.0/act/Mul_output_0: 3d24dc91
/model.23/cv3.1/cv3.1.0/cv3.1.0.0/act/Mul_output_0: 3d6547d8
/model.23/Concat_22_output_0: 3f204a85
ONNXTRT_Broadcast_319_output: 3e810a14
/model.23/Add_8_output_0: 3e810a14
/model.23/Reshape_11_output_0: 3e9f4871
/model.23/cv2.1/cv2.1.1/act/Sigmoid_output_0: 3c010a14
/model.23/cv3.1/cv3.1.0/cv3.1.0.1/act/Sigmoid_output_0: 3c02e747
/model.22/cv1/conv/Conv_output_0: 3d7988ae
/model.23/cv3.2/cv3.2.1/cv3.2.1.1/act/Mul_output_0: 3cd29a61
/model.23/cv3.2/cv3.2.0/cv3.2.0.1/conv/Conv_output_0: 3d1abed6
/model.23/cv2.2/cv2.2.1/act/Sigmoid_output_0: 3c010a14
/model.23/Expand_output_0: 3f204a85
/model.23/cv3.2/cv3.2.1/cv3.2.1.0/conv/Conv_output_0: 3d3fe0f6
