TRT-100800-EntropyCalibration2
images: 3b66eddc
/model.0/conv/Conv_output_0: 3e9bc539
/model.0/act/Sigmoid_output_0: 3c010a14
/model.0/act/Mul_output_0: 3e8febfd
/model.1/conv/Conv_output_0: 3f093be8
/model.1/act/Sigmoid_output_0: 3c010a14
/model.1/act/Mul_output_0: 3e8ef5f5
/model.2/cv1/conv/Conv_output_0: 3f304cbb
/model.2/cv1/act/Sigmoid_output_0: 3c010a14
/model.2/cv1/act/Mul_output_0: 3e90fb85
/model.23/Unsqueeze_9_output_0: 3e1d4449
/model.23/Sub_1_output_0: 3e2e41f0
/model.23/Reshape_17_output_0: 3e1d4449
/model.23/dfl/conv/Conv_output_0: 3dbc8d8f
/model.23/cv2.1/cv2.1.2/Conv_output_0: 3df9cccd
/model.23/Concat_15_output_0: 3e9f4871
/model.2/Split_output_0: 3e0f5bce
/model.23/dfl/Softmax_output_0: 3bb909d0
/model.23/Slice_output_0: 3da349ff
/model.22/cv1/conv/Conv_output_0: 3d80da5d
/model.2/Split_output_1: 3e4c0fa4
/model.2/m.0/cv1/conv/Conv_output_0: 3d864a29
/model.2/m.0/cv1/act/Sigmoid_output_0: 3beb0da6
/model.2/m.0/cv1/act/Mul_output_0: 3c195c28
/model.2/m.0/cv2/conv/Conv_output_0: 3e27c5c6
/model.2/m.0/cv2/act/Sigmoid_output_0: 3c010a14
/model.2/m.0/cv2/act/Mul_output_0: 3dc21f6c
/model.2/m.0/Add_output_0: 3e8782a9
/model.2/Concat_output_0: 3e9066e5
/model.2/cv2/conv/Conv_output_0: 3ea75a9e
/model.2/cv2/act/Sigmoid_output_0: 3c010a14
/model.2/cv2/act/Mul_output_0: 3d90d849
/model.3/conv/Conv_output_0: 3d90f11d
/model.3/act/Sigmoid_output_0: 3c010a12
/model.3/act/Mul_output_0: 3d41d61c
/model.4/cv1/conv/Conv_output_0: 3d8bb8bc
/model.4/cv1/act/Sigmoid_output_0: 3bfff610
/model.4/cv1/act/Mul_output_0: 3cd2fe56
/model.23/Transpose_1_output_0: 3e810a14
/model.23/Expand_5_output_0: 3e1d4449
/model.23/dfl/Transpose_output_0: 3df63eb5
ONNXTRT_Broadcast_244_output: 3e010a14
/model.23/Unsqueeze_10_output_0: 3e1d4449
ONNXTRT_ShapeShuffle_222_output: 3c010a14
/model.4/Split_output_0: 3ce9056b
/model.23/cv2.1/cv2.1.1/conv/Conv_output_0: 3e2aac70
/model.23/Reshape_10_output_0: 3e9f4871
/model.22/Split_output_0: 3c99c822
/model.4/Split_output_1: 3ca3c145
/model.4/m.0/cv1/conv/Conv_output_0: 3cc86367
/model.4/m.0/cv1/act/Sigmoid_output_0: 3bfd67d3
/model.4/m.0/cv1/act/Mul_output_0: 3ca5008e
/model.4/m.0/cv2/conv/Conv_output_0: 3d484abe
/model.4/m.0/cv2/act/Sigmoid_output_0: 3c00d6b5
/model.4/m.0/cv2/act/Mul_output_0: 3d244a32
/model.4/m.0/Add_output_0: 3d435d8c
/model.4/Concat_output_0: 3d4008e4
/model.4/cv2/conv/Conv_output_0: 3d4dc933
/model.4/cv2/act/Sigmoid_output_0: 3bf3f1f5
/model.4/cv2/act/Mul_output_0: 3c67d2e7
/model.5/conv/Conv_output_0: 3d5e3fbb
/model.5/act/Sigmoid_output_0: 3bffa669
/model.5/act/Mul_output_0: 3cb0cf38
/model.6/cv1/conv/Conv_output_0: 3d8cc854
/model.6/cv1/act/Sigmoid_output_0: 3c03c726
/model.6/cv1/act/Mul_output_0: 3cc0b671
/model.23/Concat_20_output_0: 3e1d4449
/model.23/cv2.1/cv2.1.1/act/Mul_output_0: 3dc17d13
/model.23/Expand_4_output_0: 3e1d4449
/model.22/m.0/cv1/act/Sigmoid_output_0: 3bdbd964
/model.23/Squeeze_1_output_0_output: 3e010a14
ONNXTRT_ShapeShuffle_239_output: 0
/model.6/Split_output_0: 3cd3534b
/model.21/Concat_output_0: 3c916155
/model.23/Split_1_output_1: 3d85a9c1
/model.23/Reshape_7_output_0: 3f204a85
/model.6/Split_output_1: 3cc0b671
/model.6/m.0/cv1/conv/Conv_output_0: 3cea2f87
/model.6/m.0/cv2/conv/Conv_output_0: 3d7f2242
/model.6/m.0/cv1/act/Sigmoid_output_0: 3bf7126c
/model.6/m.0/cv2/act/Sigmoid_output_0: 3c01193f
/model.6/m.0/cv1/act/Mul_output_0: 3cd119f5
/model.6/m.0/cv2/act/Mul_output_0: 3d22f763
/model.6/m.0/m/m.0/cv1/conv/Conv_output_0: 3d3ffa98
/model.6/m.0/m/m.0/cv1/act/Sigmoid_output_0: 3bfe9117
/model.6/m.0/m/m.0/cv1/act/Mul_output_0: 3c87c46a
/model.6/m.0/m/m.0/cv2/conv/Conv_output_0: 3d32d421
/model.6/m.0/m/m.0/cv2/act/Sigmoid_output_0: 3c046286
/model.6/m.0/m/m.0/cv2/act/Mul_output_0: 3ce87400
/model.6/m.0/m/m.0/Add_output_0: 3d3e2964
/model.6/m.0/m/m.1/cv1/conv/Conv_output_0: 3d1985f2
/model.6/m.0/m/m.1/cv1/act/Sigmoid_output_0: 3c009580
/model.6/m.0/m/m.1/cv1/act/Mul_output_0: 3c3fd967
/model.6/m.0/m/m.1/cv2/conv/Conv_output_0: 3d82209a
/model.6/m.0/m/m.1/cv2/act/Sigmoid_output_0: 3c04a60e
/model.6/m.0/m/m.1/cv2/act/Mul_output_0: 3d43b259
/model.6/m.0/m/m.1/Add_output_0: 3d88983d
/model.6/m.0/Concat_output_0: 3d671055
/model.6/m.0/cv3/conv/Conv_output_0: 3d778610
/model.6/m.0/cv3/act/Sigmoid_output_0: 3c00fab7
/model.6/m.0/cv3/act/Mul_output_0: 3cd2c0d4
/model.6/Concat_output_0: 3cd2c0d4
/model.6/cv2/conv/Conv_output_0: 3d3ab551
/model.6/cv2/act/Sigmoid_output_0: 3bfe94ef
/model.6/cv2/act/Mul_output_0: 3c7ff9de
/model.7/conv/Conv_output_0: 3d4f28b9
/model.7/act/Sigmoid_output_0: 3bffb9e3
/model.7/act/Mul_output_0: 3c8fe890
/model.8/cv1/conv/Conv_output_0: 3d67661f
/model.8/cv1/act/Sigmoid_output_0: 3c005e30
/model.8/cv1/act/Mul_output_0: 3cd1fce9
/model.23/dfl/Reshape_output_0: 3df63eb5
/model.23/Concat_23_output_0: 3e810a14
/model.22/m.0/m/m.1/cv2/conv/Conv_output_0: 3dc4cb67
/model.22/Split_output_1: 3cc19663
/model.23/cv3.2/cv3.2.0/cv3.2.0.1/act/Sigmoid_output_0: 3c061297
/model.23/cv3.1/cv3.1.1/cv3.1.1.1/act/Sigmoid_output_0: 3b981562
/model.8/Split_output_0: 3ce70355
/model.22/m.0/m/m.0/cv1/act/Sigmoid_output_0: 3c001c08
/model.23/cv3.1/cv3.1.2/Conv_output_0: 3d5ede2d
/model.23/Add_8_output_0: 3e810a14
/model.8/Split_output_1: 3ca6065d
/model.8/m.0/cv1/conv/Conv_output_0: 3d03f958
/model.8/m.0/cv2/conv/Conv_output_0: 3d566190
/model.8/m.0/cv1/act/Sigmoid_output_0: 3bfbb2c9
/model.8/m.0/cv2/act/Sigmoid_output_0: 3c023e4e
/model.8/m.0/cv1/act/Mul_output_0: 3c906589
/model.8/m.0/cv2/act/Mul_output_0: 3d004ab0
/model.8/m.0/m/m.0/cv1/conv/Conv_output_0: 3d9da016
/model.8/m.0/m/m.0/cv1/act/Sigmoid_output_0: 3c030904
/model.8/m.0/m/m.0/cv1/act/Mul_output_0: 3cc04e42
/model.8/m.0/m/m.0/cv2/conv/Conv_output_0: 3d5e36f4
/model.8/m.0/m/m.0/cv2/act/Sigmoid_output_0: 3c00cd75
/model.8/m.0/m/m.0/cv2/act/Mul_output_0: 3cd1697b
/model.8/m.0/m/m.0/Add_output_0: 3d50bae5
/model.8/m.0/m/m.1/cv1/conv/Conv_output_0: 3d8920a9
/model.8/m.0/m/m.1/cv1/act/Sigmoid_output_0: 3c029bc8
/model.8/m.0/m/m.1/cv1/act/Mul_output_0: 3cb14fbd
/model.8/m.0/m/m.1/cv2/conv/Conv_output_0: 3d94dbe1
/model.8/m.0/m/m.1/cv2/act/Sigmoid_output_0: 3c00ebe5
/model.8/m.0/m/m.1/cv2/act/Mul_output_0: 3d427db8
/model.8/m.0/m/m.1/Add_output_0: 3dbc8331
/model.8/m.0/Concat_output_0: 3d69e13c
/model.8/m.0/cv3/conv/Conv_output_0: 3d96384e
/model.8/m.0/cv3/act/Sigmoid_output_0: 3c04d8ec
/model.8/m.0/cv3/act/Mul_output_0: 3cd2ca76
/model.8/Concat_output_0: 3cd42d94
/model.8/cv2/conv/Conv_output_0: 3d78a891
/model.8/cv2/act/Sigmoid_output_0: 3bffc3ca
/model.8/cv2/act/Mul_output_0: 3ce5d951
/model.9/cv1/conv/Conv_output_0: 3d4218f1
/model.9/cv1/act/Sigmoid_output_0: 3c002fc6
/model.9/cv1/act/Mul_output_0: 3d48743c
/model.9/m/MaxPool_output_0: 3d48743c
/model.9/m_1/MaxPool_output_0: 3d48743c
/model.9/m_2/MaxPool_output_0: 3d48743c
/model.9/Concat_output_0: 3d4ca663
/model.9/cv2/conv/Conv_output_0: 3d7500f7
/model.9/cv2/act/Sigmoid_output_0: 3c016a97
/model.9/cv2/act/Mul_output_0: 3c72a1e5
/model.10/cv1/conv/Conv_output_0: 3d9e6bd9
/model.10/cv1/act/Sigmoid_output_0: 3c007ca3
/model.10/cv1/act/Mul_output_0: 3d254f09
/model.23/Reshape_16_output_0: 3e1d4449
/model.23/Reshape_15_output_0: 3e1d4449
/model.23/Squeeze_2_output_0_output: 3e810a14
/model.23/cv3.1/cv3.1.1/cv3.1.1.0/act/Sigmoid_output_0: 3bcf6204
ONNXTRT_Broadcast_319_output: 3e810a14
/model.23/dfl/Softmax_output: 3bb909d0
/model.10/Split_output_0: 3d10d6c8
/model.23/cv3.1/cv3.1.1/cv3.1.1.0/act/Mul_output_0: 3bdbddff
/model.22/m.0/m/m.1/cv1/act/Sigmoid_output_0: 3bfd39d3
/model.23/ConstantOfShape_2_output_0: 0
/model.10/Split_output_1: 3d241fd3
/model.23/Reshape_13_output_0: 3e1d4449
/model.23/Reshape_14_output_0: 3e1d4449
/model.10/m/m.0/attn/qkv/conv/Conv_output_0: 3d5064c8
/model.22/m.0/cv1/act/Mul_output_0: 3bf2cbd4
ONNXTRT_Broadcast_309_output: 3b810a14
/model.23/Reshape_12_output_0: 3e9f4871
ONNXTRT_ShapeShuffle_307_output: 3c010a14
/model.23/Range_5_output_0: 3e193bf8
/model.23/Div_1_output_0: 3f2f135c
/model.23/Concat_22_output_0: 3f204a85
ONNXTRT_ShapeShuffle_314_output: 0
/model.23/cv2.2/cv2.2.0/conv/Conv_output_0: 3d7a3e47
/model.22/m.0/m/m.0/cv1/act/Mul_output_0: 3c80c8fc
/model.23/Concat_1_output_0: 3dbb6ac3
/model.22/m.0/m/m.0/cv2/act/Sigmoid_output_0: 3bff11ab
/model.22/m.0/m/m.0/cv1/conv/Conv_output_0: 3d3724c4
/model.23/Unsqueeze_4_output_0: 3f204a85
/model.23/cv3.1/cv3.1.1/cv3.1.1.1/act/Mul_output_0: 3b34179f
/model.23/Transpose_output_0: 3f204a85
/model.10/m/m.0/attn/Reshape_output_0: 3d5064c8
/model.22/m.0/cv2/act/Mul_output_0: 3d003728
/model.22/m.0/cv3/act/Sigmoid_output_0: 3c010538
/model.23/Constant_67_output_0_output: 3c810a14
/model.22/m.0/m/m.0/cv2/act/Mul_output_0: 3c9a0d4a
/model.23/cv3.1/cv3.1.1/cv3.1.1.1/conv/Conv_output_0: 3b918e71
/model.23/ConstantOfShape_1_output_0: 0
/model.10/m/m.0/attn/Split_output_0: 3d0d6357
/model.23/Add_11_output_0: 3faf135c
ONNXTRT_ShapeShuffle_297_output: 3c010a14
ONNXTRT_ShapeShuffle_232_output: 3c010a14
/model.10/m/m.0/attn/Split_output_1: 3d671677
/model.23/Range_4_output_0: 3e193bf8
/model.22/cv1/act/Sigmoid_output_0: 3c06bc9e
/model.23/Sigmoid_output_0: 370d5c5a
/model.10/m/m.0/attn/Split_output_2: 3d78e343
/model.10/m/m.0/attn/Transpose_output_0: 3d0d6357
/model.10/m/m.0/attn/Reshape_2_output_0: 3d78e343
/model.10/m/m.0/attn/MatMul_output_0: 3f3ec238
/model.10/m/m.0/attn/pe/conv/Conv_output_0: 3d402283
/model.10/m/m.0/attn/Constant_6_output_0_output: 3ab67d3d
ONNXTRT_Broadcast_output: 3ab67d3d
/model.10/m/m.0/attn/Mul_1_output_0: 3e06e302
/model.10/m/m.0/attn/Softmax_output: 3a73a9da
/model.10/m/m.0/attn/Softmax_output_0: 3a73a9da
/model.23/Add_10_output_0: 3f22eec1
/model.23/Range_2_output_0: 3e9d4449
/model.10/m/m.0/attn/Transpose_1_output_0: 3a73a9da
/model.10/m/m.0/attn/MatMul_1_output_0: 3d67b0cb
/model.10/m/m.0/attn/Reshape_1_output_0: 3d67b0cb
/model.10/m/m.0/attn/Add_output_0: 3cad6f49
/model.10/m/m.0/attn/proj/conv/Conv_output_0: 3d090614
/model.10/m/m.0/Add_output_0: 3d3ccd1c
/model.10/m/m.0/ffn/ffn.0/conv/Conv_output_0: 3d64d115
/model.10/m/m.0/ffn/ffn.0/act/Sigmoid_output_0: 3c02c9cc
/model.10/m/m.0/ffn/ffn.0/act/Mul_output_0: 3b10db84
/model.10/m/m.0/ffn/ffn.1/conv/Conv_output_0: 3d15faa3
/model.10/m/m.0/Add_1_output_0: 3d32f585
/model.10/Concat_output_0: 3d258e8d
/model.10/cv2/conv/Conv_output_0: 3d83f3e7
/model.10/cv2/act/Sigmoid_output_0: 3c06d8b9
/model.10/cv2/act/Mul_output_0: 3c90726f
/model.11/Resize_output_0: 3c90726f
/model.12/Concat_output_0: 3c7ff9de
/model.13/cv1/conv/Conv_output_0: 3d4dbcdd
/model.13/cv1/act/Sigmoid_output_0: 3bf871d8
/model.13/cv1/act/Mul_output_0: 3c9a8856
/model.22/m.0/cv2/conv/Conv_output_0: 3d44efdf
/model.22/cv1/act/Mul_output_0: 3cb17636
/model.23/Unsqueeze_6_output_0: 3e9f4871
/model.23/Reshape_11_output_0: 3e9f4871
/model.22/m.0/m/m.0/cv2/conv/Conv_output_0: 3d4e1b07
/model.23/Unsqueeze_3_output_0: 3f204a85
/model.13/Split_output_0: 3ca5902b
ONNXTRT_Broadcast_311_output: 3b810a14
/model.23/Concat_10_output_0: 3f204a85
/model.22/m.0/m/m.1/cv1/conv/Conv_output_0: 3d92ca3c
/model.13/Split_output_1: 3c7286a1
/model.13/m.0/cv1/conv/Conv_output_0: 3d206a07
/model.13/m.0/cv1/act/Sigmoid_output_0: 3c00e4a1
/model.13/m.0/cv1/act/Mul_output_0: 3c7346bb
/model.13/m.0/cv2/conv/Conv_output_0: 3d52bf63
/model.13/m.0/cv2/act/Sigmoid_output_0: 3c07cba8
/model.13/m.0/cv2/act/Mul_output_0: 3cd0d5c4
/model.13/m.0/Add_output_0: 3d3f9f8e
/model.13/Concat_output_0: 3cb050df
/model.13/cv2/conv/Conv_output_0: 3d4ee531
/model.13/cv2/act/Sigmoid_output_0: 3bfb1d4a
/model.13/cv2/act/Mul_output_0: 3c3fd803
/model.14/Resize_output_0: 3c3fd803
/model.15/Concat_output_0: 3c67d2e7
/model.16/cv1/conv/Conv_output_0: 3d506607
/model.16/cv1/act/Sigmoid_output_0: 3c07ac3b
/model.16/cv1/act/Mul_output_0: 3c90387c
ONNXTRT_Broadcast_234_output: 3b810a14
/model.23/Range_3_output_0: 3e9d4449
/model.23/Reshape_9_output_0: 3e9f4871
/model.23/Reshape_8_output_0: 3e9f4871
/model.22/m.0/m/m.1/cv1/act/Mul_output_0: 3c1ed798
/model.23/dfl/Reshape_1_output_0: 3dbc8d8f
/model.16/Split_output_0: 3c90387c
/model.23/Expand_1_output_0: 3f204a85
/model.23/Concat_24_output_0: 3f2ad782
/model.23/Sub_output_0: 3f200b33
/model.16/Split_output_1: 3c71ab16
/model.16/m.0/cv1/conv/Conv_output_0: 3d0d0fa5
/model.16/m.0/cv1/act/Sigmoid_output_0: 3c007bed
/model.16/m.0/cv1/act/Mul_output_0: 3cc12d4c
/model.16/m.0/cv2/conv/Conv_output_0: 3d535bd8
/model.16/m.0/cv2/act/Sigmoid_output_0: 3c04dc81
/model.16/m.0/cv2/act/Mul_output_0: 3cd32d63
/model.16/m.0/Add_output_0: 3d0703b7
/model.16/Concat_output_0: 3ce778f3
/model.16/cv2/conv/Conv_output_0: 3d392a44
/model.16/cv2/act/Sigmoid_output_0: 3bfd92f8
/model.16/cv2/act/Mul_output_0: 3c9a16c3
/model.17/conv/Conv_output_0: 3d3bad50
/model.23/cv2.0/cv2.0.0/conv/Conv_output_0: 3d99cff4
/model.23/cv3.0/cv3.0.0/cv3.0.0.0/conv/Conv_output_0: 3d53722c
/model.17/act/Sigmoid_output_0: 3c078ab3
/model.23/cv2.0/cv2.0.0/act/Sigmoid_output_0: 3c01eab3
/model.23/cv3.0/cv3.0.0/cv3.0.0.0/act/Sigmoid_output_0: 3c01643b
/model.17/act/Mul_output_0: 3c81787e
/model.23/cv2.0/cv2.0.0/act/Mul_output_0: 3c30e947
/model.23/cv3.0/cv3.0.0/cv3.0.0.0/act/Mul_output_0: 3d0f5daa
/model.18/Concat_output_0: 3c81787e
/model.23/cv2.0/cv2.0.1/conv/Conv_output_0: 3e464fd9
/model.23/cv3.0/cv3.0.0/cv3.0.0.1/conv/Conv_output_0: 3cb56958
/model.19/cv1/conv/Conv_output_0: 3d34636c
/model.23/cv2.0/cv2.0.1/act/Sigmoid_output_0: 3c010a14
/model.23/cv3.0/cv3.0.0/cv3.0.0.1/act/Sigmoid_output_0: 3bf30a67
/model.19/cv1/act/Sigmoid_output_0: 3c00f7ad
/model.23/cv2.0/cv2.0.1/act/Mul_output_0: 3dce6b29
/model.23/cv3.0/cv3.0.0/cv3.0.0.1/act/Mul_output_0: 3c72efa9
/model.19/cv1/act/Mul_output_0: 3c9a9e4a
/model.23/cv2.0/cv2.0.2/Conv_output_0: 3df63eb5
/model.23/cv3.0/cv3.0.1/cv3.0.1.0/conv/Conv_output_0: 3c5c43e7
/model.22/m.0/m/m.0/Add_output_0: 3d23f14b
/model.23/Concat_6_output_0: 3d85dfee
ONNXTRT_Broadcast_419_output: 3c810a14
/model.22/cv2/act/Mul_output_0: 3cc18fec
ONNXTRT_Broadcast_426_output: 3e810a14
/model.23/Reshape_2_output_0: 3daee320
/model.19/Split_output_0: 3c9a9e4a
/model.23/Unsqueeze_12_output_0: 3f204a85
output0: 40ac18a6
/model.23/Concat_2_output_0: 3daee320
/model.19/Split_output_1: 3c488365
/model.23/cv3.0/cv3.0.1/cv3.0.1.0/act/Sigmoid_output_0: 3bd151f1
/model.19/m.0/cv1/conv/Conv_output_0: 3d805d6b
/model.23/cv3.0/cv3.0.1/cv3.0.1.0/act/Mul_output_0: 3c23483e
/model.19/m.0/cv1/act/Sigmoid_output_0: 3c0e0b3e
/model.23/cv3.0/cv3.0.1/cv3.0.1.1/conv/Conv_output_0: 3bd20dd8
/model.19/m.0/cv1/act/Mul_output_0: 3cb2e6eb
/model.23/cv3.0/cv3.0.1/cv3.0.1.1/act/Sigmoid_output_0: 3bab17ca
/model.19/m.0/cv2/conv/Conv_output_0: 3d89aae3
/model.23/cv3.0/cv3.0.1/cv3.0.1.1/act/Mul_output_0: 3b7d4c59
/model.19/m.0/cv2/act/Sigmoid_output_0: 3c014cf5
/model.23/cv3.0/cv3.0.2/Conv_output_0: 3d85a9c1
/model.19/m.0/cv2/act/Mul_output_0: 3ce8c19d
/model.23/Concat_output_0: 3d85dfee
/model.19/m.0/Add_output_0: 3d401798
/model.23/cv3.2/cv3.2.1/cv3.2.1.1/act/Sigmoid_output_0: 3b9cf08f
/model.23/cv3.2/cv3.2.1/cv3.2.1.1/conv/Conv_output_0: 3b15d2ae
/model.19/Concat_output_0: 3ce75822
/model.23/cv3.2/cv3.2.1/cv3.2.1.0/act/Mul_output_0: 3ba3379d
/model.23/cv3.2/cv3.2.0/cv3.2.0.1/act/Mul_output_0: 3c7f1ba8
/model.23/cv2.2/cv2.2.1/act/Mul_output_0: 3dc10958
/model.19/cv2/conv/Conv_output_0: 3d7e6839
/model.23/cv3.1/cv3.1.0/cv3.1.0.1/conv/Conv_output_0: 3cb0fdf8
/model.22/Concat_output_0: 3cd2111b
/model.23/cv3.2/cv3.2.0/cv3.2.0.0/act/Mul_output_0: 3d3ecf00
/model.23/cv2.2/cv2.2.1/act/Sigmoid_output_0: 3c010a14
/model.19/cv2/act/Sigmoid_output_0: 3c001e49
/model.23/cv3.2/cv3.2.2/Conv_output_0: 3d318e11
/model.23/cv3.2/cv3.2.1/cv3.2.1.1/act/Mul_output_0: 3abdf2cc
/model.23/cv3.2/cv3.2.1/cv3.2.1.0/conv/Conv_output_0: 3bf94e92
/model.23/Constant_14_output_0_output: 0
/model.23/Constant_15_output_0_output: 3c010a14
/model.22/m.0/cv3/act/Mul_output_0: 3cd2111b
/model.22/m.0/cv3/conv/Conv_output_0: 3dd2df95
/model.22/m.0/Concat_output_0: 3dc24389
/model.22/cv2/conv/Conv_output_0: 3d9431db
/model.22/m.0/m/m.1/Add_output_0: 3dc6be6b
/model.22/m.0/cv2/act/Sigmoid_output_0: 3c0096fd
/model.23/Split_1_output_0: 3df63eb5
/model.23/Range_output_0: 3f1f4871
ONNXTRT_ShapeShuffle_146_output: 3c010a14
/model.23/cv2.2/cv2.2.0/act/Mul_output_0: 3d006483
/model.23/cv3.2/cv3.2.0/cv3.2.0.0/act/Sigmoid_output_0: 3c060ff8
/model.23/cv2.2/cv2.2.0/act/Sigmoid_output_0: 3c01f1ce
/model.23/cv2.2/cv2.2.1/conv/Conv_output_0: 3e27d255
(Unnamed Layer* 505) [Constant]_output: 0
/model.23/cv3.2/cv3.2.0/cv3.2.0.0/conv/Conv_output_0: 3d80204a
/model.22/cv2/act/Sigmoid_output_0: 3c05bc68
/model.23/Range_1_output_0: 3f1f4871
ONNXTRT_ShapeShuffle_156_output: 3c010a14
/model.23/cv3.2/cv3.2.0/cv3.2.0.1/conv/Conv_output_0: 3c911fb1
/model.19/cv2/act/Mul_output_0: 3c9a4f9b
/model.23/Reshape_output_0: 3d85dfee
/model.23/Constant_16_output_0_output: 3b810a14
ONNXTRT_Broadcast_159_output: 3b810a14
/model.23/Reshape_4_output_0: 3f204a85
ONNXTRT_Broadcast_161_output: 3b810a14
/model.23/Reshape_3_output_0: 3f204a85
/model.23/cv2.2/cv2.2.2/Conv_output_0: 3dd8e8b6
(Unnamed Layer* 627) [Constant]_output: 0
/model.20/conv/Conv_output_0: 3d821914
/model.23/cv2.1/cv2.1.0/conv/Conv_output_0: 3dc27ecd
/model.23/cv3.1/cv3.1.0/cv3.1.0.0/conv/Conv_output_0: 3d6edea1
(Unnamed Layer* 382) [Constant]_output: 0
ONNXTRT_ShapeShuffle_164_output: 0
/model.23/ConstantOfShape_output_0: 0
/model.23/cv3.1/cv3.1.0/cv3.1.0.1/act/Mul_output_0: 3c998d95
/model.23/Mul_5_output_0: 40ac18a6
/model.23/cv2.1/cv2.1.1/act/Sigmoid_output_0: 3c010a14
/model.23/Add_5_output_0: 3e010a14
/model.23/Reshape_5_output_0: 3f204a85
/model.23/Reshape_6_output_0: 3f204a85
/model.20/act/Sigmoid_output_0: 3c04dbef
/model.23/cv2.1/cv2.1.0/act/Sigmoid_output_0: 3c0105a7
/model.23/cv3.1/cv3.1.0/cv3.1.0.0/act/Sigmoid_output_0: 3c044307
/model.23/Squeeze_output_0_output: 3d810a14
ONNXTRT_Broadcast_169_output: 3d810a14
/model.23/Add_2_output_0: 3d810a14
/model.23/cv3.1/cv3.1.1/cv3.1.1.0/conv/Conv_output_0: 3ca42cc8
/model.20/act/Mul_output_0: 3cb28c36
/model.23/cv2.1/cv2.1.0/act/Mul_output_0: 3cb10a6e
/model.23/cv3.1/cv3.1.0/cv3.1.0.0/act/Mul_output_0: 3d404429
/model.23/Expand_2_output_0: 3e9f4871
/model.23/cv3.2/cv3.2.1/cv3.2.1.0/act/Sigmoid_output_0: 3bb980ed
/model.22/m.0/m/m.1/cv2/act/Mul_output_0: 3d66d20b
/model.23/Unsqueeze_7_output_0: 3e9f4871
/model.23/Reshape_1_output_0: 3dbb6ac3
/model.23/cv3.1/cv3.1.0/cv3.1.0.1/act/Sigmoid_output_0: 3c026352
/model.22/m.0/cv1/conv/Conv_output_0: 3cf90fd9
/model.23/Slice_1_output_0: 3dbb987a
/model.22/m.0/m/m.1/cv2/act/Sigmoid_output_0: 3c010a10
/model.23/Expand_3_output_0: 3e9f4871
/model.23/Expand_output_0: 3f204a85
ONNXTRT_Broadcast_236_output: 3b810a14
