TRT-100800-EntropyCalibration2
images: 3b66eddc
/model.0/conv/Conv_output_0: 3e941371
/model.0/act/Sigmoid_output_0: 3c010a14
/model.0/act/Mul_output_0: 3e948b20
/model.1/conv/Conv_output_0: 3f603fff
/model.1/act/Sigmoid_output_0: 3c010a14
/model.1/act/Mul_output_0: 3ec237a4
/model.2/cv1/conv/Conv_output_0: 3f029369
/model.2/cv1/act/Sigmoid_output_0: 3c010a14
/model.2/cv1/act/Mul_output_0: 3e7d336f
/model.23/dfl/Reshape_1_output_0: 3dabdc0e
/model.23/cv2.2/cv2.2.1/conv/Conv_output_0: 3e112935
/model.23/Reshape_14_output_0: 3e1d4449
/model.22/cv2/act/Mul_output_0: 3ce5aed2
/model.23/Expand_5_output_0: 3e1d4449
/model.23/Concat_6_output_0: 3e06e5c2
/model.2/Split_output_0: 3e674e68
/model.23/Squeeze_2_output_0_output: 3e810a14
/model.23/Sub_1_output_0: 3e2ab09a
/model.23/Range_4_output_0: 3e193bf8
/model.2/Split_output_1: 3e83519a
/model.2/m.0/cv1/conv/Conv_output_0: 3e27d5d9
/model.2/m.0/cv1/act/Sigmoid_output_0: 3bfafe15
/model.2/m.0/cv1/act/Mul_output_0: 3c1ad808
/model.2/m.0/cv2/conv/Conv_output_0: 3e6defbb
/model.2/m.0/cv2/act/Sigmoid_output_0: 3c010a14
/model.2/m.0/cv2/act/Mul_output_0: 3e91a165
/model.2/m.0/Add_output_0: 3e972be9
/model.2/Concat_output_0: 3eaf556d
/model.2/cv2/conv/Conv_output_0: 3ede5491
/model.2/cv2/act/Sigmoid_output_0: 3c010a14
/model.2/cv2/act/Mul_output_0: 3e0c0d42
/model.3/conv/Conv_output_0: 3df5832d
/model.3/act/Sigmoid_output_0: 3c010a14
/model.3/act/Mul_output_0: 3d934eb4
/model.4/cv1/conv/Conv_output_0: 3e06620a
/model.4/cv1/act/Sigmoid_output_0: 3c02abfe
/model.4/cv1/act/Mul_output_0: 3d001b66
/model.23/Reshape_15_output_0: 3e1d4449
/model.23/Reshape_10_output_0: 3e9f4871
/model.23/cv3.2/cv3.2.2/Conv_output_0: 3ddea8f5
/model.23/Constant_67_output_0_output: 3c810a14
/model.23/Slice_1_output_0: 3db2e641
/model.23/Concat_2_output_0: 3dcb2947
/model.4/Split_output_0: 3d23627e
/model.23/Split_1_output_1: 3e24803c
/model.23/cv2.2/cv2.2.2/Conv_output_0: 3dbfec4a
/model.23/Concat_24_output_0: 3f1f2348
/model.4/Split_output_1: 3ccf6b56
/model.4/m.0/cv1/conv/Conv_output_0: 3cd844cb
/model.4/m.0/cv1/act/Sigmoid_output_0: 3c01dfc9
/model.4/m.0/cv1/act/Mul_output_0: 3cc02eb1
/model.4/m.0/cv2/conv/Conv_output_0: 3d647ec1
/model.4/m.0/cv2/act/Sigmoid_output_0: 3c016447
/model.4/m.0/cv2/act/Mul_output_0: 3d24f856
/model.4/m.0/Add_output_0: 3d68cdea
/model.4/Concat_output_0: 3d69ec9d
/model.4/cv2/conv/Conv_output_0: 3db68f7a
/model.4/cv2/act/Sigmoid_output_0: 3c0747af
/model.4/cv2/act/Mul_output_0: 3cb2bf56
/model.5/conv/Conv_output_0: 3d70d687
/model.5/act/Sigmoid_output_0: 3c02535d
/model.5/act/Mul_output_0: 3d0128f8
/model.6/cv1/conv/Conv_output_0: 3daddefe
/model.6/cv1/act/Sigmoid_output_0: 3c0c1881
/model.6/cv1/act/Mul_output_0: 3d132b3a
/model.23/Add_8_output_0: 3e810a14
/model.23/cv3.2/cv3.2.0/cv3.2.0.1/act/Sigmoid_output_0: 3c03651e
/model.23/Concat_23_output_0: 3e810a14
/model.23/cv3.2/cv3.2.0/cv3.2.0.0/act/Sigmoid_output_0: 3c0b046a
/model.23/Slice_output_0: 3db8c8d4
/model.23/cv2.2/cv2.2.1/act/Mul_output_0: 3dc091be
/model.6/Split_output_0: 3d01730f
/model.23/Reshape_17_output_0: 3e1d4449
/model.23/Transpose_output_0: 3f204a85
/model.22/m.0/m/m.0/Add_output_0: 3d2391cf
/model.6/Split_output_1: 3d142452
/model.6/m.0/cv1/conv/Conv_output_0: 3d0ade3e
/model.6/m.0/cv2/conv/Conv_output_0: 3dc5e098
/model.6/m.0/cv1/act/Sigmoid_output_0: 3c078b04
/model.6/m.0/cv2/act/Sigmoid_output_0: 3c021380
/model.6/m.0/cv1/act/Mul_output_0: 3cd49246
/model.6/m.0/cv2/act/Mul_output_0: 3d7466da
/model.6/m.0/m/m.0/cv1/conv/Conv_output_0: 3d89555b
/model.6/m.0/m/m.0/cv1/act/Sigmoid_output_0: 3c03e29d
/model.6/m.0/m/m.0/cv1/act/Mul_output_0: 3ca54137
/model.6/m.0/m/m.0/cv2/conv/Conv_output_0: 3d57ac97
/model.6/m.0/m/m.0/cv2/act/Sigmoid_output_0: 3c1240d8
/model.6/m.0/m/m.0/cv2/act/Mul_output_0: 3ce7a379
/model.6/m.0/m/m.0/Add_output_0: 3d2efb5d
/model.6/m.0/m/m.1/cv1/conv/Conv_output_0: 3d85dc10
/model.6/m.0/m/m.1/cv1/act/Sigmoid_output_0: 3c01feb4
/model.6/m.0/m/m.1/cv1/act/Mul_output_0: 3c87e1b3
/model.6/m.0/m/m.1/cv2/conv/Conv_output_0: 3d7b7ef9
/model.6/m.0/m/m.1/cv2/act/Sigmoid_output_0: 3c00beca
/model.6/m.0/m/m.1/cv2/act/Mul_output_0: 3d661160
/model.6/m.0/m/m.1/Add_output_0: 3d9c1ac1
/model.6/m.0/Concat_output_0: 3d96d56f
/model.6/m.0/cv3/conv/Conv_output_0: 3d986157
/model.6/m.0/cv3/act/Sigmoid_output_0: 3c034b2b
/model.6/m.0/cv3/act/Mul_output_0: 3cc00268
/model.6/Concat_output_0: 3d142452
/model.6/cv2/conv/Conv_output_0: 3d7ac165
/model.6/cv2/act/Sigmoid_output_0: 3c022b06
/model.6/cv2/act/Mul_output_0: 3cb12730
/model.7/conv/Conv_output_0: 3d8853da
/model.7/act/Sigmoid_output_0: 3c03854f
/model.7/act/Mul_output_0: 3ce6d0cc
/model.8/cv1/conv/Conv_output_0: 3da9de75
/model.8/cv1/act/Sigmoid_output_0: 3c02db11
/model.8/cv1/act/Mul_output_0: 3d27b3fe
/model.23/Reshape_12_output_0: 3e9f4871
/model.23/Unsqueeze_6_output_0: 3e9f4871
/model.22/Concat_output_0: 3cd1dfe4
/model.23/Concat_20_output_0: 3e1d4449
/model.23/Reshape_16_output_0: 3e1d4449
/model.23/cv3.2/cv3.2.1/cv3.2.1.1/conv/Conv_output_0: 3d41c271
/model.8/Split_output_0: 3d27b3fe
/model.23/Expand_4_output_0: 3e1d4449
/model.23/Reshape_2_output_0: 3dcb2947
/model.23/Mul_5_output_0: 409f2348
/model.8/Split_output_1: 3cd27b0e
/model.8/m.0/cv1/conv/Conv_output_0: 3d49e589
/model.8/m.0/cv2/conv/Conv_output_0: 3dbb2a8f
/model.8/m.0/cv1/act/Sigmoid_output_0: 3c09000d
/model.8/m.0/cv2/act/Sigmoid_output_0: 3c019d3e
/model.8/m.0/cv1/act/Mul_output_0: 3cb1a0b5
/model.8/m.0/cv2/act/Mul_output_0: 3d4309db
/model.8/m.0/m/m.0/cv1/conv/Conv_output_0: 3db727d3
/model.8/m.0/m/m.0/cv1/act/Sigmoid_output_0: 3c03f977
/model.8/m.0/m/m.0/cv1/act/Mul_output_0: 3ce710a7
/model.8/m.0/m/m.0/cv2/conv/Conv_output_0: 3d52f374
/model.8/m.0/m/m.0/cv2/act/Sigmoid_output_0: 3c022329
/model.8/m.0/m/m.0/cv2/act/Mul_output_0: 3d014c14
/model.8/m.0/m/m.0/Add_output_0: 3d4f4491
/model.8/m.0/m/m.1/cv1/conv/Conv_output_0: 3d5daf70
/model.8/m.0/m/m.1/cv1/act/Sigmoid_output_0: 3c07e66c
/model.8/m.0/m/m.1/cv1/act/Mul_output_0: 3cc1dbaf
/model.8/m.0/m/m.1/cv2/conv/Conv_output_0: 3d8e6230
/model.8/m.0/m/m.1/cv2/act/Sigmoid_output_0: 3c02bcb5
/model.8/m.0/m/m.1/cv2/act/Mul_output_0: 3d426007
/model.8/m.0/m/m.1/Add_output_0: 3d945fba
/model.8/m.0/Concat_output_0: 3d6268e4
/model.8/m.0/cv3/conv/Conv_output_0: 3d72e77b
/model.8/m.0/cv3/act/Sigmoid_output_0: 3c06bbe6
/model.8/m.0/cv3/act/Mul_output_0: 3c914deb
/model.8/Concat_output_0: 3d02e8cd
/model.8/cv2/conv/Conv_output_0: 3ddd21d7
/model.8/cv2/act/Sigmoid_output_0: 3c01a696
/model.8/cv2/act/Mul_output_0: 3d2727f3
/model.9/cv1/conv/Conv_output_0: 3d8190c6
/model.9/cv1/act/Sigmoid_output_0: 3c086404
/model.9/cv1/act/Mul_output_0: 3d916666
/model.9/m/MaxPool_output_0: 3d916666
/model.9/m_1/MaxPool_output_0: 3d916666
/model.9/m_2/MaxPool_output_0: 3d916666
/model.9/Concat_output_0: 3d6e2074
/model.9/cv2/conv/Conv_output_0: 3d901280
/model.9/cv2/act/Sigmoid_output_0: 3bf714ab
/model.9/cv2/act/Mul_output_0: 3c662da2
/model.10/cv1/conv/Conv_output_0: 3dcaff70
/model.10/cv1/act/Sigmoid_output_0: 3c00cbaa
/model.10/cv1/act/Mul_output_0: 3d261429
/model.23/Concat_22_output_0: 3f204a85
/model.23/Expand_2_output_0: 3e9f4871
/model.23/cv3.2/cv3.2.0/cv3.2.0.0/conv/Conv_output_0: 3d9f830a
/model.23/cv2.2/cv2.2.1/act/Sigmoid_output_0: 3c01d39d
/model.23/Reshape_13_output_0: 3e1d4449
/model.23/cv2.2/cv2.2.0/act/Sigmoid_output_0: 3c030670
/model.10/Split_output_0: 3d40eff5
ONNXTRT_ShapeShuffle_307_output: 3c010a14
/model.23/dfl/Transpose_output_0: 3dcadb50
/model.23/Transpose_1_output_0: 3e810a14
/model.10/Split_output_1: 3d26ce39
/model.23/Add_5_output_0: 3e010a14
/model.23/Squeeze_1_output_0_output: 3e010a14
/model.10/m/m.0/attn/qkv/conv/Conv_output_0: 3d3f50d9
/model.23/Add_10_output_0: 3f21c62d
/model.22/m.0/m/m.1/cv1/act/Mul_output_0: 3c669b45
/model.23/Add_11_output_0: 3f9f2348
/model.23/Unsqueeze_9_output_0: 3e1d4449
/model.23/ConstantOfShape_2_output_0: 0
(Unnamed Layer* 505) [Constant]_output: 0
/model.22/m.0/m/m.1/cv1/act/Sigmoid_output_0: 3c036629
/model.23/dfl/conv/Conv_output_0: 3dabdc0e
/model.23/dfl/Softmax_output: 3bac8f59
/model.23/cv3.1/cv3.1.1/cv3.1.1.0/conv/Conv_output_0: 3db40956
/model.23/Range_2_output_0: 3e9d4449
/model.23/Concat_10_output_0: 3f204a85
/model.22/cv1/act/Mul_output_0: 3cb1bd9c
/model.23/Unsqueeze_4_output_0: 3f204a85
/model.22/m.0/m/m.1/cv2/conv/Conv_output_0: 3de1260b
/model.22/m.0/m/m.1/Add_output_0: 3dd409b8
/model.10/m/m.0/attn/Reshape_output_0: 3d3f50d9
/model.22/m.0/cv3/act/Mul_output_0: 3d103355
(Unnamed Layer* 627) [Constant]_output: 0
/model.23/Sub_output_0: 3f1d0708
/model.23/cv3.2/cv3.2.1/cv3.2.1.0/act/Mul_output_0: 3d22e37d
/model.23/Reshape_8_output_0: 3e9f4871
ONNXTRT_Broadcast_234_output: 3b810a14
/model.10/m/m.0/attn/Split_output_0: 3d120573
/model.23/Unsqueeze_3_output_0: 3f204a85
/model.23/cv3.1/cv3.1.0/cv3.1.0.1/act/Sigmoid_output_0: 3c0203d3
/model.23/cv2.1/cv2.1.1/act/Mul_output_0: 3e17502c
/model.10/m/m.0/attn/Split_output_1: 3d6b5b23
/model.23/Expand_1_output_0: 3f204a85
/model.23/cv3.2/cv3.2.0/cv3.2.0.1/act/Mul_output_0: 3ce53110
ONNXTRT_ShapeShuffle_314_output: 0
/model.10/m/m.0/attn/Split_output_2: 3d7543ad
/model.10/m/m.0/attn/Transpose_output_0: 3d120573
/model.10/m/m.0/attn/Reshape_2_output_0: 3d7543ad
/model.10/m/m.0/attn/MatMul_output_0: 3f4f54a9
/model.10/m/m.0/attn/pe/conv/Conv_output_0: 3d3a270a
/model.10/m/m.0/attn/Constant_6_output_0_output: 3ab67d3d
ONNXTRT_Broadcast_output: 3ab67d3d
/model.10/m/m.0/attn/Mul_1_output_0: 3e129ade
/model.10/m/m.0/attn/Softmax_output: 3a14a1bd
/model.10/m/m.0/attn/Softmax_output_0: 3a14a1bd
ONNXTRT_ShapeShuffle_297_output: 3c010a14
ONNXTRT_ShapeShuffle_232_output: 3c010a14
/model.10/m/m.0/attn/Transpose_1_output_0: 3a14a1bd
/model.10/m/m.0/attn/MatMul_1_output_0: 3d29a0e4
/model.10/m/m.0/attn/Reshape_1_output_0: 3d29a0e4
/model.10/m/m.0/attn/Add_output_0: 3d03c738
/model.10/m/m.0/attn/proj/conv/Conv_output_0: 3cc01a65
/model.10/m/m.0/Add_output_0: 3d545c26
/model.10/m/m.0/ffn/ffn.0/conv/Conv_output_0: 3d2a1c55
/model.10/m/m.0/ffn/ffn.0/act/Sigmoid_output_0: 3bec9442
/model.10/m/m.0/ffn/ffn.0/act/Mul_output_0: 3b1070bc
/model.10/m/m.0/ffn/ffn.1/conv/Conv_output_0: 3c24ef1b
/model.10/m/m.0/Add_1_output_0: 3d556d7f
/model.10/Concat_output_0: 3d40eff5
/model.10/cv2/conv/Conv_output_0: 3d51b76d
/model.10/cv2/act/Sigmoid_output_0: 3bf78d26
/model.10/cv2/act/Mul_output_0: 3b102f41
/model.11/Resize_output_0: 3b102f41
/model.12/Concat_output_0: 3cb20ec5
/model.13/cv1/conv/Conv_output_0: 3d7c5da3
/model.13/cv1/act/Sigmoid_output_0: 3c020223
/model.13/cv1/act/Mul_output_0: 3cbfb518
/model.22/cv1/act/Sigmoid_output_0: 3c00e62c
ONNXTRT_ShapeShuffle_222_output: 3c010a14
/model.23/Split_1_output_0: 3dcadb50
/model.23/cv3.2/cv3.2.0/cv3.2.0.0/act/Mul_output_0: 3d64d0f7
/model.23/Sigmoid_output_0: 37727ca1
/model.22/cv2/act/Sigmoid_output_0: 3c063ba8
/model.13/Split_output_0: 3ce5b5e3
/model.23/cv3.2/cv3.2.1/cv3.2.1.1/act/Sigmoid_output_0: 3c0eff70
/model.23/cv3.2/cv3.2.1/cv3.2.1.0/conv/Conv_output_0: 3d36eae9
ONNXTRT_Broadcast_419_output: 3c810a14
/model.13/Split_output_1: 3c73e26d
/model.13/m.0/cv1/conv/Conv_output_0: 3d29672b
/model.13/m.0/cv1/act/Sigmoid_output_0: 3bfa620b
/model.13/m.0/cv1/act/Mul_output_0: 3c800ee7
/model.13/m.0/cv2/conv/Conv_output_0: 3d48b8d8
/model.13/m.0/cv2/act/Sigmoid_output_0: 3c007fd3
/model.13/m.0/cv2/act/Mul_output_0: 3ce6973c
/model.13/m.0/Add_output_0: 3d2415d5
/model.13/Concat_output_0: 3ce71bb4
/model.13/cv2/conv/Conv_output_0: 3d5afcf8
/model.13/cv2/act/Sigmoid_output_0: 3bf808d2
/model.13/cv2/act/Mul_output_0: 3c742943
/model.14/Resize_output_0: 3c742943
/model.15/Concat_output_0: 3cb2bf56
/model.16/cv1/conv/Conv_output_0: 3d77670d
/model.16/cv1/act/Sigmoid_output_0: 3bf843ab
/model.16/cv1/act/Mul_output_0: 3c99e8b5
/model.23/cv3.1/cv3.1.1/cv3.1.1.1/conv/Conv_output_0: 3d8780a2
/model.23/cv2.1/cv2.1.1/act/Sigmoid_output_0: 3c010a14
/model.23/cv3.1/cv3.1.1/cv3.1.1.1/act/Mul_output_0: 3d1155bc
/model.21/Concat_output_0: 3cb31dff
/model.23/Unsqueeze_12_output_0: 3f204a85
/model.22/m.0/m/m.0/cv2/act/Sigmoid_output_0: 3c008c90
/model.16/Split_output_0: 3cb19e57
/model.23/cv3.2/cv3.2.1/cv3.2.1.1/act/Mul_output_0: 3d10d46c
/model.22/cv2/conv/Conv_output_0: 3d8bbdb4
/model.23/dfl/Softmax_output_0: 3bac8f59
/model.16/Split_output_1: 3c905961
/model.16/m.0/cv1/conv/Conv_output_0: 3d23a5ab
/model.16/m.0/cv1/act/Sigmoid_output_0: 3c00fe20
/model.16/m.0/cv1/act/Mul_output_0: 3cd40eea
/model.16/m.0/cv2/conv/Conv_output_0: 3d4d8e17
/model.16/m.0/cv2/act/Sigmoid_output_0: 3c019847
/model.16/m.0/cv2/act/Mul_output_0: 3cd32b29
/model.16/m.0/Add_output_0: 3d19ab25
/model.16/Concat_output_0: 3cc096dd
/model.16/cv2/conv/Conv_output_0: 3d7f46c9
/model.16/cv2/act/Sigmoid_output_0: 3c002665
/model.16/cv2/act/Mul_output_0: 3cc0d132
/model.17/conv/Conv_output_0: 3d3f1666
/model.23/cv2.0/cv2.0.0/conv/Conv_output_0: 3d91cc12
/model.23/cv3.0/cv3.0.0/cv3.0.0.0/conv/Conv_output_0: 3d5e5598
/model.17/act/Sigmoid_output_0: 3c07038e
/model.23/cv2.0/cv2.0.0/act/Sigmoid_output_0: 3c0a81f8
/model.23/cv3.0/cv3.0.0/cv3.0.0.0/act/Sigmoid_output_0: 3bfeb4b5
/model.17/act/Mul_output_0: 3c8057ff
/model.23/cv2.0/cv2.0.0/act/Mul_output_0: 3cc21f61
/model.23/cv3.0/cv3.0.0/cv3.0.0.0/act/Mul_output_0: 3d241a7e
/model.18/Concat_output_0: 3c8057ff
/model.23/cv2.0/cv2.0.1/conv/Conv_output_0: 3e67363c
/model.23/cv3.0/cv3.0.0/cv3.0.0.1/conv/Conv_output_0: 3d542dc2
/model.19/cv1/conv/Conv_output_0: 3d6c91e0
/model.23/cv2.0/cv2.0.1/act/Sigmoid_output_0: 3c010a14
/model.23/cv3.0/cv3.0.0/cv3.0.0.1/act/Sigmoid_output_0: 3c0127e3
/model.19/cv1/act/Sigmoid_output_0: 3c016848
/model.23/cv2.0/cv2.0.1/act/Mul_output_0: 3e8e0df5
/model.23/cv3.0/cv3.0.0/cv3.0.0.1/act/Mul_output_0: 3d0002d5
/model.19/cv1/act/Mul_output_0: 3c99536c
/model.23/cv2.0/cv2.0.2/Conv_output_0: 3dc4871b
/model.23/cv3.0/cv3.0.1/cv3.0.1.0/conv/Conv_output_0: 3d858711
ONNXTRT_Broadcast_309_output: 3b810a14
/model.23/cv2.2/cv2.2.0/conv/Conv_output_0: 3db1cd43
ONNXTRT_Broadcast_311_output: 3b810a14
ONNXTRT_ShapeShuffle_239_output: 0
output0: 409f2348
/model.23/Range_3_output_0: 3e9d4449
/model.19/Split_output_0: 3cd1628e
ONNXTRT_Broadcast_426_output: 3e810a14
/model.23/cv2.2/cv2.2.0/act/Mul_output_0: 3d40ab99
/model.23/cv3.2/cv3.2.0/cv3.2.0.1/conv/Conv_output_0: 3d33437a
/model.19/Split_output_1: 3c804050
/model.23/cv3.0/cv3.0.1/cv3.0.1.0/act/Sigmoid_output_0: 3c02b182
/model.19/m.0/cv1/conv/Conv_output_0: 3d39a75d
/model.23/cv3.0/cv3.0.1/cv3.0.1.0/act/Mul_output_0: 3d0fde08
/model.19/m.0/cv1/act/Sigmoid_output_0: 3c01c45f
/model.23/cv3.0/cv3.0.1/cv3.0.1.1/conv/Conv_output_0: 3d505b97
/model.19/m.0/cv1/act/Mul_output_0: 3cbff2af
/model.23/cv3.0/cv3.0.1/cv3.0.1.1/act/Sigmoid_output_0: 3c00b620
/model.19/m.0/cv2/conv/Conv_output_0: 3d910990
/model.23/cv3.0/cv3.0.1/cv3.0.1.1/act/Mul_output_0: 3d007be6
/model.19/m.0/cv2/act/Sigmoid_output_0: 3c01bf5c
/model.23/cv3.0/cv3.0.2/Conv_output_0: 3e06a0dd
/model.19/m.0/cv2/act/Mul_output_0: 3d113d6f
/model.23/Concat_output_0: 3e07b472
/model.19/m.0/Add_output_0: 3d669fde
/model.23/cv2.1/cv2.1.1/conv/Conv_output_0: 3e571816
/model.22/m.0/cv3/conv/Conv_output_0: 3dd3d44a
/model.19/Concat_output_0: 3d121b2f
/model.23/dfl/Reshape_output_0: 3dcadb50
/model.22/m.0/Concat_output_0: 3d909a46
/model.23/Unsqueeze_7_output_0: 3e9f4871
/model.19/cv2/conv/Conv_output_0: 3d74b0c1
/model.23/Div_1_output_0: 3f1f2348
/model.23/Reshape_11_output_0: 3e9f4871
ONNXTRT_Broadcast_236_output: 3b810a14
/model.22/m.0/m/m.1/cv1/conv/Conv_output_0: 3d496442
/model.19/cv2/act/Sigmoid_output_0: 3c0136e8
/model.23/Reshape_1_output_0: 3e20aa23
/model.22/m.0/m/m.0/cv2/conv/Conv_output_0: 3d31ae17
/model.23/Concat_1_output_0: 3e20aa23
/model.23/Constant_14_output_0_output: 0
/model.23/Constant_15_output_0_output: 3c010a14
/model.23/cv3.1/cv3.1.1/cv3.1.1.0/act/Mul_output_0: 3d3fb220
/model.22/m.0/cv2/conv/Conv_output_0: 3d42db95
/model.22/m.0/cv1/conv/Conv_output_0: 3d227095
/model.22/m.0/cv2/act/Sigmoid_output_0: 3c0c6187
/model.22/Split_output_1: 3cb2070f
/model.23/ConstantOfShape_1_output_0: 0
/model.22/Split_output_0: 3cc0d511
/model.23/Range_output_0: 3f1f4871
ONNXTRT_ShapeShuffle_146_output: 3c010a14
ONNXTRT_Broadcast_319_output: 3e810a14
/model.23/Unsqueeze_10_output_0: 3e1d4449
/model.22/m.0/m/m.0/cv2/act/Mul_output_0: 3ce55853
/model.22/m.0/m/m.0/cv1/conv/Conv_output_0: 3d390fc5
/model.23/cv3.1/cv3.1.1/cv3.1.1.1/act/Sigmoid_output_0: 3c0106db
/model.22/m.0/cv2/act/Mul_output_0: 3d10eba2
/model.22/m.0/cv1/act/Mul_output_0: 3c0fe5b8
/model.23/Range_1_output_0: 3f1f4871
ONNXTRT_ShapeShuffle_156_output: 3c010a14
/model.23/cv3.1/cv3.1.2/Conv_output_0: 3e377054
/model.19/cv2/act/Mul_output_0: 3cb19989
/model.23/Reshape_output_0: 3e07b472
/model.23/Constant_16_output_0_output: 3b810a14
ONNXTRT_Broadcast_159_output: 3b810a14
/model.23/Reshape_4_output_0: 3f204a85
ONNXTRT_Broadcast_161_output: 3b810a14
/model.23/Reshape_3_output_0: 3f204a85
/model.22/m.0/m/m.0/cv1/act/Mul_output_0: 3cb1038f
/model.22/m.0/m/m.0/cv1/act/Sigmoid_output_0: 3c0325bf
/model.20/conv/Conv_output_0: 3d8fc25e
/model.23/cv2.1/cv2.1.0/conv/Conv_output_0: 3dc67e95
/model.23/cv3.1/cv3.1.0/cv3.1.0.0/conv/Conv_output_0: 3d7a34ca
(Unnamed Layer* 382) [Constant]_output: 0
ONNXTRT_ShapeShuffle_164_output: 0
/model.23/ConstantOfShape_output_0: 0
/model.23/cv3.1/cv3.1.1/cv3.1.1.0/act/Sigmoid_output_0: 3c0a77b9
/model.22/m.0/cv1/act/Sigmoid_output_0: 3bdbb285
/model.23/Expand_3_output_0: 3e9f4871
/model.23/cv3.1/cv3.1.0/cv3.1.0.1/conv/Conv_output_0: 3d41d08d
/model.23/Reshape_5_output_0: 3f204a85
/model.23/Reshape_6_output_0: 3f204a85
/model.20/act/Sigmoid_output_0: 3c0c8f16
/model.23/cv2.1/cv2.1.0/act/Sigmoid_output_0: 3c00fb41
/model.23/cv3.1/cv3.1.0/cv3.1.0.0/act/Sigmoid_output_0: 3c025b07
/model.23/Squeeze_output_0_output: 3d810a14
ONNXTRT_Broadcast_169_output: 3d810a14
/model.23/Add_2_output_0: 3d810a14
/model.23/cv2.1/cv2.1.2/Conv_output_0: 3dc77d61
/model.20/act/Mul_output_0: 3cc1a814
/model.23/cv2.1/cv2.1.0/act/Mul_output_0: 3d2704ee
/model.23/cv3.1/cv3.1.0/cv3.1.0.0/act/Mul_output_0: 3d3e730b
ONNXTRT_Broadcast_244_output: 3e010a14
/model.22/cv1/conv/Conv_output_0: 3d81e081
/model.23/cv3.1/cv3.1.0/cv3.1.0.1/act/Mul_output_0: 3d006475
/model.23/Concat_15_output_0: 3e9f4871
/model.22/m.0/m/m.1/cv2/act/Sigmoid_output_0: 3c063b2e
/model.22/m.0/cv3/act/Sigmoid_output_0: 3c0c83cf
/model.23/Range_5_output_0: 3e193bf8
/model.22/m.0/m/m.1/cv2/act/Mul_output_0: 3d62812f
/model.23/cv3.2/cv3.2.1/cv3.2.1.0/act/Sigmoid_output_0: 3c056e2b
/model.23/Reshape_9_output_0: 3e9f4871
/model.23/Expand_output_0: 3f204a85
/model.23/Reshape_7_output_0: 3f204a85
