TRT-100800-EntropyCalibration2
images: 3b66eddc
/model.0/conv/Conv_output_0: 3e93f3c7
/model.0/act/Sigmoid_output_0: 3c010a14
/model.0/act/Mul_output_0: 3e97b675
/model.1/conv/Conv_output_0: 3f3d2eb1
/model.1/act/Sigmoid_output_0: 3c010a14
/model.1/act/Mul_output_0: 3eb63e82
/model.2/cv1/conv/Conv_output_0: 3f566693
/model.2/cv1/act/Sigmoid_output_0: 3c010a14
/model.2/cv1/act/Mul_output_0: 3eaaee6c
/model.23/cv2.1/cv2.1.1/act/Mul_output_0: 3e0f2bd4
/model.23/Range_2_output_0: 3e9d4449
/model.23/Reshape_16_output_0: 3e1d4449
/model.22/m.0/cv2/conv/Conv_output_0: 3d23d189
/model.23/Sub_output_0: 3f1ef1aa
/model.23/Expand_4_output_0: 3e1d4449
/model.2/Split_output_0: 3e95fd5e
/model.23/cv3.1/cv3.1.0/cv3.1.0.1/act/Mul_output_0: 3ce60a08
/model.22/m.0/m/m.1/cv2/act/Mul_output_0: 3d6a1365
/model.23/cv2.2/cv2.2.0/conv/Conv_output_0: 3d81261f
/model.2/Split_output_1: 3eb7ec6b
/model.2/m.0/cv1/conv/Conv_output_0: 3e14bc70
/model.2/m.0/cv1/act/Sigmoid_output_0: 3bfe215b
/model.2/m.0/cv1/act/Mul_output_0: 3c1709cb
/model.2/m.0/cv2/conv/Conv_output_0: 3e89b41d
/model.2/m.0/cv2/act/Sigmoid_output_0: 3c010a14
/model.2/m.0/cv2/act/Mul_output_0: 3e8bf734
/model.2/m.0/Add_output_0: 3eadf2a1
/model.2/Concat_output_0: 3eaef903
/model.2/cv2/conv/Conv_output_0: 3f04c5e5
/model.2/cv2/act/Sigmoid_output_0: 3c010a14
/model.2/cv2/act/Mul_output_0: 3e153cf6
/model.3/conv/Conv_output_0: 3df59066
/model.3/act/Sigmoid_output_0: 3c010a14
/model.3/act/Mul_output_0: 3d8ff4ed
/model.4/cv1/conv/Conv_output_0: 3de228c8
/model.4/cv1/act/Sigmoid_output_0: 3c000a64
/model.4/cv1/act/Mul_output_0: 3d2406fa
/model.23/Concat_2_output_0: 3db47654
/model.23/Add_11_output_0: 3fa0275c
/model.23/Concat_22_output_0: 3f204a85
/model.23/Transpose_output_0: 3f204a85
ONNXTRT_Broadcast_319_output: 3e810a14
ONNXTRT_Broadcast_311_output: 3b810a14
/model.4/Split_output_0: 3d23c149
/model.23/Split_1_output_0: 3dc654ad
/model.23/dfl/Reshape_output_0: 3dc654ad
/model.23/Range_3_output_0: 3e9d4449
/model.4/Split_output_1: 3d00d2f6
/model.4/m.0/cv1/conv/Conv_output_0: 3d2bb8b2
/model.4/m.0/cv1/act/Sigmoid_output_0: 3c03124c
/model.4/m.0/cv1/act/Mul_output_0: 3ca614d5
/model.4/m.0/cv2/conv/Conv_output_0: 3d6a51e3
/model.4/m.0/cv2/act/Sigmoid_output_0: 3c025f61
/model.4/m.0/cv2/act/Mul_output_0: 3d3db7d0
/model.4/m.0/Add_output_0: 3d7d9e7b
/model.4/Concat_output_0: 3d60317a
/model.4/cv2/conv/Conv_output_0: 3dbeeb31
/model.4/cv2/act/Sigmoid_output_0: 3c05fba3
/model.4/cv2/act/Mul_output_0: 3c99107a
/model.5/conv/Conv_output_0: 3d8410b2
/model.5/act/Sigmoid_output_0: 3c016e02
/model.5/act/Mul_output_0: 3ce93bca
/model.6/cv1/conv/Conv_output_0: 3dec809a
/model.6/cv1/act/Sigmoid_output_0: 3c005bf1
/model.6/cv1/act/Mul_output_0: 3ce6ebdd
/model.23/cv3.2/cv3.2.1/cv3.2.1.1/conv/Conv_output_0: 3d10cf06
/model.23/cv3.2/cv3.2.1/cv3.2.1.0/act/Mul_output_0: 3d109f49
/model.23/cv3.2/cv3.2.1/cv3.2.1.1/act/Mul_output_0: 3ce911d3
/model.23/cv3.2/cv3.2.1/cv3.2.1.0/conv/Conv_output_0: 3d4c9684
/model.23/Sigmoid_output_0: 39290941
/model.22/cv2/act/Mul_output_0: 3d128d24
/model.6/Split_output_0: 3ce6ebdd
/model.23/cv3.2/cv3.2.0/cv3.2.0.1/conv/Conv_output_0: 3d2d0bfd
/model.23/Reshape_11_output_0: 3e9f4871
ONNXTRT_Broadcast_309_output: 3b810a14
/model.6/Split_output_1: 3d12249a
/model.6/m.0/cv1/conv/Conv_output_0: 3d03340f
/model.6/m.0/cv2/conv/Conv_output_0: 3d948609
/model.6/m.0/cv1/act/Sigmoid_output_0: 3c00ee69
/model.6/m.0/cv2/act/Sigmoid_output_0: 3c02f530
/model.6/m.0/cv1/act/Mul_output_0: 3cbf2abe
/model.6/m.0/cv2/act/Mul_output_0: 3d25ff90
/model.6/m.0/m/m.0/cv1/conv/Conv_output_0: 3d4a63d7
/model.6/m.0/m/m.0/cv1/act/Sigmoid_output_0: 3c0ce262
/model.6/m.0/m/m.0/cv1/act/Mul_output_0: 3c8fb51c
/model.6/m.0/m/m.0/cv2/conv/Conv_output_0: 3d411130
/model.6/m.0/m/m.0/cv2/act/Sigmoid_output_0: 3c00ef91
/model.6/m.0/m/m.0/cv2/act/Mul_output_0: 3ce6235f
/model.6/m.0/m/m.0/Add_output_0: 3d63798c
/model.6/m.0/m/m.1/cv1/conv/Conv_output_0: 3d5f4d99
/model.6/m.0/m/m.1/cv1/act/Sigmoid_output_0: 3c0115cc
/model.6/m.0/m/m.1/cv1/act/Mul_output_0: 3c5cadb9
/model.6/m.0/m/m.1/cv2/conv/Conv_output_0: 3d54d39a
/model.6/m.0/m/m.1/cv2/act/Sigmoid_output_0: 3c00cbd4
/model.6/m.0/m/m.1/cv2/act/Mul_output_0: 3d65de5e
/model.6/m.0/m/m.1/Add_output_0: 3dbbc8a8
/model.6/m.0/Concat_output_0: 3d912499
/model.6/m.0/cv3/conv/Conv_output_0: 3d94a436
/model.6/m.0/cv3/act/Sigmoid_output_0: 3c01d98a
/model.6/m.0/cv3/act/Mul_output_0: 3cc12dec
/model.6/Concat_output_0: 3ce6ebdd
/model.6/cv2/conv/Conv_output_0: 3d6de1a4
/model.6/cv2/act/Sigmoid_output_0: 3bff7351
/model.6/cv2/act/Mul_output_0: 3cc02921
/model.7/conv/Conv_output_0: 3d914bd0
/model.7/act/Sigmoid_output_0: 3c00f4ba
/model.7/act/Mul_output_0: 3cbf8121
/model.8/cv1/conv/Conv_output_0: 3d9d8667
/model.8/cv1/act/Sigmoid_output_0: 3c21b760
/model.8/cv1/act/Mul_output_0: 3d006b07
/model.22/cv2/act/Sigmoid_output_0: 3c011043
/model.22/Concat_output_0: 3ce6c704
/model.23/cv3.2/cv3.2.0/cv3.2.0.0/conv/Conv_output_0: 3d94aeea
/model.22/m.0/cv3/act/Mul_output_0: 3d24a7e2
/model.23/cv2.2/cv2.2.0/act/Sigmoid_output_0: 3c010106
/model.23/Reshape_7_output_0: 3f204a85
/model.8/Split_output_0: 3d006b07
/model.23/Unsqueeze_7_output_0: 3e9f4871
ONNXTRT_Broadcast_234_output: 3b810a14
/model.23/Split_1_output_1: 3e076f3e
/model.8/Split_output_1: 3d01367a
/model.8/m.0/cv1/conv/Conv_output_0: 3d67e2c5
/model.8/m.0/cv2/conv/Conv_output_0: 3db779be
/model.8/m.0/cv1/act/Sigmoid_output_0: 3c01e3fa
/model.8/m.0/cv2/act/Sigmoid_output_0: 3c0a3acb
/model.8/m.0/cv1/act/Mul_output_0: 3c993ce3
/model.8/m.0/cv2/act/Mul_output_0: 3d0196f3
/model.8/m.0/m/m.0/cv1/conv/Conv_output_0: 3db49617
/model.8/m.0/m/m.0/cv1/act/Sigmoid_output_0: 3c048a04
/model.8/m.0/m/m.0/cv1/act/Mul_output_0: 3d014f13
/model.8/m.0/m/m.0/cv2/conv/Conv_output_0: 3d591be6
/model.8/m.0/m/m.0/cv2/act/Sigmoid_output_0: 3c184d98
/model.8/m.0/m/m.0/cv2/act/Mul_output_0: 3d273e08
/model.8/m.0/m/m.0/Add_output_0: 3d7e69b1
/model.8/m.0/m/m.1/cv1/conv/Conv_output_0: 3d50238a
/model.8/m.0/m/m.1/cv1/act/Sigmoid_output_0: 3bff5f1f
/model.8/m.0/m/m.1/cv1/act/Mul_output_0: 3d0ff04c
/model.8/m.0/m/m.1/cv2/conv/Conv_output_0: 3dadd89a
/model.8/m.0/m/m.1/cv2/act/Sigmoid_output_0: 3c01096e
/model.8/m.0/m/m.1/cv2/act/Mul_output_0: 3d6665e5
/model.8/m.0/m/m.1/Add_output_0: 3da8eb78
/model.8/m.0/Concat_output_0: 3d69b13b
/model.8/m.0/cv3/conv/Conv_output_0: 3d5cd82c
/model.8/m.0/cv3/act/Sigmoid_output_0: 3c00b356
/model.8/m.0/cv3/act/Mul_output_0: 3cd28f5d
/model.8/Concat_output_0: 3d006b07
/model.8/cv2/conv/Conv_output_0: 3d9ce5e0
/model.8/cv2/act/Sigmoid_output_0: 3c03e0b2
/model.8/cv2/act/Mul_output_0: 3ce86c71
/model.9/cv1/conv/Conv_output_0: 3d7b80cb
/model.9/cv1/act/Sigmoid_output_0: 3c036e76
/model.9/cv1/act/Mul_output_0: 3d4b17a5
/model.9/m/MaxPool_output_0: 3d4b17a5
/model.9/m_1/MaxPool_output_0: 3d4b17a5
/model.9/m_2/MaxPool_output_0: 3d4b17a5
/model.9/Concat_output_0: 3d4b17a5
/model.9/cv2/conv/Conv_output_0: 3d8ffb8b
/model.9/cv2/act/Sigmoid_output_0: 3c002ec8
/model.9/cv2/act/Mul_output_0: 3c879d98
/model.10/cv1/conv/Conv_output_0: 3da536af
/model.10/cv1/act/Sigmoid_output_0: 3c087dbc
/model.10/cv1/act/Mul_output_0: 3d25903f
/model.23/Concat_15_output_0: 3e9f4871
/model.23/Range_5_output_0: 3e193bf8
/model.23/Reshape_12_output_0: 3e9f4871
/model.23/Unsqueeze_6_output_0: 3e9f4871
/model.22/m.0/cv3/act/Sigmoid_output_0: 3c00dce3
/model.23/cv3.2/cv3.2.0/cv3.2.0.0/act/Mul_output_0: 3d3fac4b
/model.10/Split_output_0: 3d425de3
/model.23/cv3.2/cv3.2.0/cv3.2.0.1/act/Sigmoid_output_0: 3bfba09e
/model.23/Expand_3_output_0: 3e9f4871
ONNXTRT_ShapeShuffle_314_output: 0
/model.10/Split_output_1: 3d679d0e
/model.23/Slice_output_0: 3dcf151e
/model.22/m.0/m/m.1/cv1/act/Sigmoid_output_0: 3c01d151
/model.10/m/m.0/attn/qkv/conv/Conv_output_0: 3d96b50d
/model.23/Expand_5_output_0: 3e1d4449
/model.23/cv3.1/cv3.1.0/cv3.1.0.1/conv/Conv_output_0: 3d4bce98
/model.23/cv3.1/cv3.1.1/cv3.1.1.1/conv/Conv_output_0: 3d675bff
ONNXTRT_ShapeShuffle_297_output: 3c010a14
/model.22/m.0/cv3/conv/Conv_output_0: 3dab7cd0
/model.23/cv3.2/cv3.2.1/cv3.2.1.1/act/Sigmoid_output_0: 3bff6208
/model.23/cv2.2/cv2.2.2/Conv_output_0: 3db22854
/model.23/Range_4_output_0: 3e193bf8
/model.23/cv3.2/cv3.2.0/cv3.2.0.1/act/Mul_output_0: 3cd119f3
/model.23/Squeeze_1_output_0_output: 3e010a14
/model.22/m.0/m/m.0/Add_output_0: 3d2404bf
(Unnamed Layer* 505) [Constant]_output: 0
/model.23/ConstantOfShape_1_output_0: 0
ONNXTRT_Broadcast_244_output: 3e010a14
/model.23/Unsqueeze_4_output_0: 3f204a85
/model.23/Reshape_9_output_0: 3e9f4871
/model.10/m/m.0/attn/Reshape_output_0: 3d96b50d
/model.23/cv2.2/cv2.2.1/act/Mul_output_0: 3e0ff05c
ONNXTRT_Broadcast_426_output: 3e810a14
ONNXTRT_Broadcast_419_output: 3c810a14
/model.23/Transpose_1_output_0: 3e810a14
/model.23/Concat_23_output_0: 3e810a14
/model.23/Unsqueeze_10_output_0: 3e1d4449
/model.10/m/m.0/attn/Split_output_0: 3d555c3e
ONNXTRT_Broadcast_236_output: 3b810a14
/model.23/Unsqueeze_12_output_0: 3f204a85
/model.23/ConstantOfShape_2_output_0: 0
/model.10/m/m.0/attn/Split_output_1: 3db6f4c7
/model.23/Div_1_output_0: 3f20275c
/model.23/dfl/conv/Conv_output_0: 3dc97430
/model.22/m.0/m/m.1/cv2/conv/Conv_output_0: 3dcf5825
/model.10/m/m.0/attn/Split_output_2: 3d850eb1
/model.10/m/m.0/attn/Transpose_output_0: 3d555c3e
/model.10/m/m.0/attn/Reshape_2_output_0: 3d850eb1
/model.10/m/m.0/attn/MatMul_output_0: 3f772583
/model.10/m/m.0/attn/pe/conv/Conv_output_0: 3d51cf5e
/model.10/m/m.0/attn/Constant_6_output_0_output: 3ab67d3d
ONNXTRT_Broadcast_output: 3ab67d3d
/model.10/m/m.0/attn/Mul_1_output_0: 3e2ec24d
/model.10/m/m.0/attn/Softmax_output: 3a3861b4
/model.10/m/m.0/attn/Softmax_output_0: 3a3861b4
/model.23/Reshape_17_output_0: 3e1d4449
/model.23/Reshape_15_output_0: 3e1d4449
/model.10/m/m.0/attn/Transpose_1_output_0: 3a3861b4
/model.10/m/m.0/attn/MatMul_1_output_0: 3d6e1ccd
/model.10/m/m.0/attn/Reshape_1_output_0: 3d6e1ccd
/model.10/m/m.0/attn/Add_output_0: 3d23934d
/model.10/m/m.0/attn/proj/conv/Conv_output_0: 3d249eff
/model.10/m/m.0/Add_output_0: 3da89f4f
/model.10/m/m.0/ffn/ffn.0/conv/Conv_output_0: 3d5ddde6
/model.10/m/m.0/ffn/ffn.0/act/Sigmoid_output_0: 3c004052
/model.10/m/m.0/ffn/ffn.0/act/Mul_output_0: 3c9073ca
/model.10/m/m.0/ffn/ffn.1/conv/Conv_output_0: 3d5de4e1
/model.10/m/m.0/Add_1_output_0: 3de44230
/model.10/Concat_output_0: 3d8fb5c4
/model.10/cv2/conv/Conv_output_0: 3dab57d3
/model.10/cv2/act/Sigmoid_output_0: 3c005664
/model.10/cv2/act/Mul_output_0: 3c90f6e3
/model.11/Resize_output_0: 3c90f6e3
/model.12/Concat_output_0: 3cc2f8c9
/model.13/cv1/conv/Conv_output_0: 3d608d06
/model.13/cv1/act/Sigmoid_output_0: 3c002c5d
/model.13/cv1/act/Mul_output_0: 3cc02187
/model.23/dfl/Softmax_output: 3baa1375
/model.23/Concat_6_output_0: 3dfac126
/model.23/dfl/Softmax_output_0: 3baa1375
/model.23/cv2.2/cv2.2.1/act/Sigmoid_output_0: 3c010a14
/model.23/Reshape_10_output_0: 3e9f4871
/model.23/cv3.2/cv3.2.1/cv3.2.1.0/act/Sigmoid_output_0: 3c026290
/model.13/Split_output_0: 3cc06467
ONNXTRT_ShapeShuffle_239_output: 0
/model.23/Reshape_8_output_0: 3e9f4871
/model.22/m.0/m/m.1/cv1/conv/Conv_output_0: 3d3886ae
/model.13/Split_output_1: 3c7f8af7
/model.13/m.0/cv1/conv/Conv_output_0: 3d1d4a71
/model.13/m.0/cv1/act/Sigmoid_output_0: 3bfec71e
/model.13/m.0/cv1/act/Mul_output_0: 3c90acd5
/model.13/m.0/cv2/conv/Conv_output_0: 3d2c8695
/model.13/m.0/cv2/act/Sigmoid_output_0: 3bff036e
/model.13/m.0/cv2/act/Mul_output_0: 3d01ca4c
/model.13/m.0/Add_output_0: 3d19279d
/model.13/Concat_output_0: 3cfedc65
/model.13/cv2/conv/Conv_output_0: 3d35aab2
/model.13/cv2/act/Sigmoid_output_0: 3bf8e845
/model.13/cv2/act/Mul_output_0: 3c51dcb2
/model.14/Resize_output_0: 3c51dcb2
/model.15/Concat_output_0: 3c50e73d
/model.16/cv1/conv/Conv_output_0: 3d652ff3
/model.16/cv1/act/Sigmoid_output_0: 3c02a5ee
/model.16/cv1/act/Mul_output_0: 3ca5696f
/model.23/Slice_1_output_0: 3dc51b9f
/model.23/Expand_1_output_0: 3f204a85
ONNXTRT_ShapeShuffle_232_output: 3c010a14
/model.23/cv2.1/cv2.1.1/act/Sigmoid_output_0: 3c010a14
/model.23/Concat_10_output_0: 3f204a85
/model.23/cv2.1/cv2.1.2/Conv_output_0: 3db2c26f
/model.16/Split_output_0: 3ca5696f
/model.23/dfl/Transpose_output_0: 3dc654ad
ONNXTRT_ShapeShuffle_307_output: 3c010a14
/model.22/Split_output_1: 3ce8b671
/model.16/Split_output_1: 3c87e9e5
/model.16/m.0/cv1/conv/Conv_output_0: 3d2c3b43
/model.16/m.0/cv1/act/Sigmoid_output_0: 3bfffe51
/model.16/m.0/cv1/act/Mul_output_0: 3ce5d9c9
/model.16/m.0/cv2/conv/Conv_output_0: 3d9180dd
/model.16/m.0/cv2/act/Sigmoid_output_0: 3c003d5f
/model.16/m.0/cv2/act/Mul_output_0: 3ce75b5b
/model.16/m.0/Add_output_0: 3d2244fd
/model.16/Concat_output_0: 3d008bf0
/model.16/cv2/conv/Conv_output_0: 3d83080a
/model.16/cv2/act/Sigmoid_output_0: 3c0761a2
/model.16/cv2/act/Mul_output_0: 3ce83d6d
/model.17/conv/Conv_output_0: 3d59dc2c
/model.23/cv2.0/cv2.0.0/conv/Conv_output_0: 3d6a5357
/model.23/cv3.0/cv3.0.0/cv3.0.0.0/conv/Conv_output_0: 3d3565ee
/model.17/act/Sigmoid_output_0: 3bff492b
/model.23/cv2.0/cv2.0.0/act/Sigmoid_output_0: 3c029e97
/model.23/cv3.0/cv3.0.0/cv3.0.0.0/act/Sigmoid_output_0: 3bfe9946
/model.17/act/Mul_output_0: 3cc15100
/model.23/cv2.0/cv2.0.0/act/Mul_output_0: 3cb1f5f1
/model.23/cv3.0/cv3.0.0/cv3.0.0.0/act/Mul_output_0: 3d2538f9
/model.18/Concat_output_0: 3c906443
/model.23/cv2.0/cv2.0.1/conv/Conv_output_0: 3e463bf7
/model.23/cv3.0/cv3.0.0/cv3.0.0.1/conv/Conv_output_0: 3d6b1c0b
/model.19/cv1/conv/Conv_output_0: 3d548ef5
/model.23/cv2.0/cv2.0.1/act/Sigmoid_output_0: 3c010a14
/model.23/cv3.0/cv3.0.0/cv3.0.0.1/act/Sigmoid_output_0: 3c00babe
/model.19/cv1/act/Sigmoid_output_0: 3c00bf9d
/model.23/cv2.0/cv2.0.1/act/Mul_output_0: 3e12df4d
/model.23/cv3.0/cv3.0.0/cv3.0.0.1/act/Mul_output_0: 3d01e3d4
/model.19/cv1/act/Mul_output_0: 3ca496e1
/model.23/cv2.0/cv2.0.2/Conv_output_0: 3dc654ad
/model.23/cv3.0/cv3.0.1/cv3.0.1.0/conv/Conv_output_0: 3d8274e3
/model.23/Add_5_output_0: 3e010a14
/model.22/m.0/m/m.1/cv1/act/Mul_output_0: 3c904e0c
/model.22/m.0/m/m.0/cv1/act/Mul_output_0: 3cd440ec
/model.23/Concat_24_output_0: 3f20275c
ONNXTRT_ShapeShuffle_222_output: 3c010a14
output0: 40a1c3aa
/model.19/Split_output_0: 3cbfbad6
/model.22/m.0/m/m.1/Add_output_0: 3d985fac
/model.23/cv3.1/cv3.1.0/cv3.1.0.1/act/Sigmoid_output_0: 3c0578e7
/model.22/cv1/act/Mul_output_0: 3ce70d4b
/model.19/Split_output_1: 3c7fe24c
/model.23/cv3.0/cv3.0.1/cv3.0.1.0/act/Sigmoid_output_0: 3c020a28
/model.19/m.0/cv1/conv/Conv_output_0: 3d56ebe4
/model.23/cv3.0/cv3.0.1/cv3.0.1.0/act/Mul_output_0: 3d69d790
/model.19/m.0/cv1/act/Sigmoid_output_0: 3c0ffc47
/model.23/cv3.0/cv3.0.1/cv3.0.1.1/conv/Conv_output_0: 3d683465
/model.19/m.0/cv1/act/Mul_output_0: 3cd1d4b0
/model.23/cv3.0/cv3.0.1/cv3.0.1.1/act/Sigmoid_output_0: 3c0e0681
/model.19/m.0/cv2/conv/Conv_output_0: 3d904b6b
/model.23/cv3.0/cv3.0.1/cv3.0.1.1/act/Mul_output_0: 3d011bca
/model.19/m.0/cv2/act/Sigmoid_output_0: 3c03f2c7
/model.23/cv3.0/cv3.0.2/Conv_output_0: 3e076f3e
/model.19/m.0/cv2/act/Mul_output_0: 3cffdd9f
/model.23/Concat_output_0: 3df96601
/model.19/m.0/Add_output_0: 3d656a97
/model.23/Reshape_13_output_0: 3e1d4449
/model.22/cv2/conv/Conv_output_0: 3da99332
/model.19/Concat_output_0: 3d0086cf
/model.23/Expand_2_output_0: 3e9f4871
/model.23/cv3.2/cv3.2.0/cv3.2.0.0/act/Sigmoid_output_0: 3c010657
/model.22/m.0/Concat_output_0: 3d6a75d5
/model.19/cv2/conv/Conv_output_0: 3d66bc74
/model.22/m.0/m/m.0/cv2/act/Sigmoid_output_0: 3c005a21
/model.23/cv3.1/cv3.1.1/cv3.1.1.1/act/Mul_output_0: 3d10a1ea
/model.22/m.0/cv1/act/Sigmoid_output_0: 3bd12ba0
/model.22/m.0/cv1/conv/Conv_output_0: 3cecf852
/model.19/cv2/act/Sigmoid_output_0: 3bfe3272
/model.23/Unsqueeze_3_output_0: 3f204a85
/model.22/m.0/m/m.0/cv2/conv/Conv_output_0: 3d64ca17
(Unnamed Layer* 627) [Constant]_output: 0
/model.23/Constant_14_output_0_output: 0
/model.23/Constant_15_output_0_output: 3c010a14
/model.22/m.0/m/m.0/cv1/conv/Conv_output_0: 3d57264c
/model.23/cv3.1/cv3.1.1/cv3.1.1.1/act/Sigmoid_output_0: 3c0631bf
/model.22/m.0/cv2/act/Mul_output_0: 3cd1d660
/model.22/m.0/m/m.0/cv1/act/Sigmoid_output_0: 3c071238
/model.23/Concat_20_output_0: 3e1d4449
/model.22/m.0/cv1/act/Mul_output_0: 3c072b45
/model.23/Add_10_output_0: 3f21e9c9
/model.23/Range_output_0: 3f1f4871
ONNXTRT_ShapeShuffle_146_output: 3c010a14
/model.23/cv3.2/cv3.2.2/Conv_output_0: 3dba7486
/model.23/Mul_5_output_0: 40a1c3aa
/model.23/Add_8_output_0: 3e810a14
/model.23/Constant_67_output_0_output: 3c810a14
/model.23/Squeeze_2_output_0_output: 3e810a14
/model.23/Reshape_14_output_0: 3e1d4449
/model.23/cv3.1/cv3.1.2/Conv_output_0: 3df939c6
/model.23/Range_1_output_0: 3f1f4871
ONNXTRT_ShapeShuffle_156_output: 3c010a14
/model.23/Reshape_1_output_0: 3de2940d
/model.19/cv2/act/Mul_output_0: 3cc0a215
/model.23/Reshape_output_0: 3df96601
/model.23/Constant_16_output_0_output: 3b810a14
ONNXTRT_Broadcast_159_output: 3b810a14
/model.23/Reshape_4_output_0: 3f204a85
ONNXTRT_Broadcast_161_output: 3b810a14
/model.23/Reshape_3_output_0: 3f204a85
/model.23/cv2.2/cv2.2.0/act/Mul_output_0: 3d40ab4d
/model.23/Reshape_2_output_0: 3db47654
/model.20/conv/Conv_output_0: 3d583ee0
/model.23/cv2.1/cv2.1.0/conv/Conv_output_0: 3da932ba
/model.23/cv3.1/cv3.1.0/cv3.1.0.0/conv/Conv_output_0: 3d91083d
(Unnamed Layer* 382) [Constant]_output: 0
ONNXTRT_ShapeShuffle_164_output: 0
/model.23/ConstantOfShape_output_0: 0
/model.23/cv3.1/cv3.1.1/cv3.1.1.0/conv/Conv_output_0: 3d894dce
/model.22/m.0/m/m.0/cv2/act/Mul_output_0: 3ce61cc1
/model.23/Concat_1_output_0: 3de2940d
/model.23/Sub_1_output_0: 3e48bbd1
/model.23/Reshape_5_output_0: 3f204a85
/model.23/Reshape_6_output_0: 3f204a85
/model.20/act/Sigmoid_output_0: 3c0067b0
/model.23/cv2.1/cv2.1.0/act/Sigmoid_output_0: 3c00eab0
/model.23/cv3.1/cv3.1.0/cv3.1.0.0/act/Sigmoid_output_0: 3c0105f3
/model.23/Squeeze_output_0_output: 3d810a14
ONNXTRT_Broadcast_169_output: 3d810a14
/model.23/Add_2_output_0: 3d810a14
/model.23/cv2.2/cv2.2.1/conv/Conv_output_0: 3e21decf
/model.20/act/Mul_output_0: 3cb16c8c
/model.23/cv2.1/cv2.1.0/act/Mul_output_0: 3d25a664
/model.23/cv3.1/cv3.1.0/cv3.1.0.0/act/Mul_output_0: 3d6780c9
/model.23/dfl/Reshape_1_output_0: 3dc97430
/model.22/Split_output_0: 3cc104e3
/model.23/cv3.1/cv3.1.1/cv3.1.1.0/act/Mul_output_0: 3d3f6294
/model.23/cv3.1/cv3.1.1/cv3.1.1.0/act/Sigmoid_output_0: 3c14a616
/model.23/cv2.1/cv2.1.1/conv/Conv_output_0: 3e5e8a2a
/model.23/Unsqueeze_9_output_0: 3e1d4449
/model.22/cv1/conv/Conv_output_0: 3d6ae1a2
/model.22/m.0/cv2/act/Sigmoid_output_0: 3c022bb7
/model.22/m.0/m/m.1/cv2/act/Sigmoid_output_0: 3c0110c1
/model.21/Concat_output_0: 3cb16c8c
/model.23/Expand_output_0: 3f204a85
/model.22/cv1/act/Sigmoid_output_0: 3c02e895
