TRT-100800-EntropyCalibration2
images: 3b66eddc
/model.0/conv/Conv_output_0: 3ebe9955
/model.0/act/Sigmoid_output_0: 3c010a14
/model.0/act/Mul_output_0: 3e9df403
/model.1/conv/Conv_output_0: 3f3964ee
/model.1/act/Sigmoid_output_0: 3c010a14
/model.1/act/Mul_output_0: 3eacf68d
/model.2/cv1/conv/Conv_output_0: 3f2ab8db
/model.2/cv1/act/Sigmoid_output_0: 3c010a14
/model.2/cv1/act/Mul_output_0: 3e9a8fea
/model.23/Range_4_output_0: 3e193bf8
/model.23/cv2.2/cv2.2.0/act/Mul_output_0: 3d41fb20
/model.23/cv3.2/cv3.2.2/Conv_output_0: 3dc271e4
/model.22/cv1/act/Mul_output_0: 3cd336e0
/model.22/m.0/m/m.1/cv2/act/Mul_output_0: 3d925b04
/model.23/cv3.2/cv3.2.1/cv3.2.1.1/act/Mul_output_0: 3cbf3fc4
/model.2/Split_output_0: 3e9a8fea
/model.23/Slice_1_output_0: 3db94fa2
ONNXTRT_Broadcast_319_output: 3e810a14
/model.23/cv3.2/cv3.2.1/cv3.2.1.0/act/Sigmoid_output_0: 3c02e495
/model.2/Split_output_1: 3e9584b9
/model.2/m.0/cv1/conv/Conv_output_0: 3dcefc8b
/model.2/m.0/cv1/act/Sigmoid_output_0: 3bfc910e
/model.2/m.0/cv1/act/Mul_output_0: 3c1ec033
/model.2/m.0/cv2/conv/Conv_output_0: 3e58608d
/model.2/m.0/cv2/act/Sigmoid_output_0: 3c010a14
/model.2/m.0/cv2/act/Mul_output_0: 3e8d7569
/model.2/m.0/Add_output_0: 3ea4268b
/model.2/Concat_output_0: 3e9a8fea
/model.2/cv2/conv/Conv_output_0: 3f18f70d
/model.2/cv2/act/Sigmoid_output_0: 3c010a14
/model.2/cv2/act/Mul_output_0: 3dbae698
/model.3/conv/Conv_output_0: 3e08f6ec
/model.3/act/Sigmoid_output_0: 3c010a14
/model.3/act/Mul_output_0: 3d901437
/model.4/cv1/conv/Conv_output_0: 3de9269f
/model.4/cv1/act/Sigmoid_output_0: 3c01349b
/model.4/cv1/act/Mul_output_0: 3cffe258
ONNXTRT_Broadcast_426_output: 3e810a14
/model.23/Sigmoid_output_0: 3800d518
/model.23/dfl/Reshape_output_0: 3dcb0a5b
ONNXTRT_Broadcast_244_output: 3e010a14
/model.23/Reshape_13_output_0: 3e1d4449
/model.23/Concat_23_output_0: 3e810a14
/model.4/Split_output_0: 3d002998
/model.23/cv2.2/cv2.2.1/act/Mul_output_0: 3e18cf71
/model.23/Add_11_output_0: 3fa049cb
/model.23/Expand_5_output_0: 3e1d4449
/model.4/Split_output_1: 3ce797a9
/model.4/m.0/cv1/conv/Conv_output_0: 3d011208
/model.4/m.0/cv1/act/Sigmoid_output_0: 3bf81e02
/model.4/m.0/cv1/act/Mul_output_0: 3cbeb88f
/model.4/m.0/cv2/conv/Conv_output_0: 3d60bf24
/model.4/m.0/cv2/act/Sigmoid_output_0: 3c00abdf
/model.4/m.0/cv2/act/Mul_output_0: 3d403f52
/model.4/m.0/Add_output_0: 3d66bffd
/model.4/Concat_output_0: 3d42d661
/model.4/cv2/conv/Conv_output_0: 3dd62ac6
/model.4/cv2/act/Sigmoid_output_0: 3c06cd44
/model.4/cv2/act/Mul_output_0: 3cb36a77
/model.5/conv/Conv_output_0: 3d6ffd3b
/model.5/act/Sigmoid_output_0: 3c025ac5
/model.5/act/Mul_output_0: 3cbfcf93
/model.6/cv1/conv/Conv_output_0: 3de4ae16
/model.6/cv1/act/Sigmoid_output_0: 3c06e2c6
/model.6/cv1/act/Mul_output_0: 3cfc8c68
/model.23/Concat_24_output_0: 3f2049cb
ONNXTRT_Broadcast_236_output: 3b810a14
/model.23/cv2.2/cv2.2.0/conv/Conv_output_0: 3d9f47a2
/model.22/Split_output_0: 3c8fd2da
/model.23/Range_2_output_0: 3e9d4449
/model.23/dfl/Softmax_output_0: 3b9fa4ff
/model.6/Split_output_0: 3cff959e
/model.23/Sub_1_output_0: 3e2f965a
ONNXTRT_Broadcast_311_output: 3b810a14
/model.23/Mul_5_output_0: 40a049cb
/model.6/Split_output_1: 3d0028b8
/model.6/m.0/cv1/conv/Conv_output_0: 3d08b3f3
/model.6/m.0/cv2/conv/Conv_output_0: 3d976858
/model.6/m.0/cv1/act/Sigmoid_output_0: 3c116d93
/model.6/m.0/cv2/act/Sigmoid_output_0: 3c04b385
/model.6/m.0/cv1/act/Mul_output_0: 3cb2525e
/model.6/m.0/cv2/act/Mul_output_0: 3d65fce0
/model.6/m.0/m/m.0/cv1/conv/Conv_output_0: 3d5c376b
/model.6/m.0/m/m.0/cv1/act/Sigmoid_output_0: 3c013595
/model.6/m.0/m/m.0/cv1/act/Mul_output_0: 3cb29535
/model.6/m.0/m/m.0/cv2/conv/Conv_output_0: 3d0ffc80
/model.6/m.0/m/m.0/cv2/act/Sigmoid_output_0: 3bfd0dab
/model.6/m.0/m/m.0/cv2/act/Mul_output_0: 3cd136d4
/model.6/m.0/m/m.0/Add_output_0: 3d64a642
/model.6/m.0/m/m.1/cv1/conv/Conv_output_0: 3d4bf985
/model.6/m.0/m/m.1/cv1/act/Sigmoid_output_0: 3bfc52d2
/model.6/m.0/m/m.1/cv1/act/Mul_output_0: 3c383e41
/model.6/m.0/m/m.1/cv2/conv/Conv_output_0: 3d8095ee
/model.6/m.0/m/m.1/cv2/act/Sigmoid_output_0: 3c021d38
/model.6/m.0/m/m.1/cv2/act/Mul_output_0: 3d26a8fb
/model.6/m.0/m/m.1/Add_output_0: 3da9760a
/model.6/m.0/Concat_output_0: 3d65fce0
/model.6/m.0/cv3/conv/Conv_output_0: 3d9d8295
/model.6/m.0/cv3/act/Sigmoid_output_0: 3c0404cb
/model.6/m.0/cv3/act/Mul_output_0: 3d13b867
/model.6/Concat_output_0: 3ccf922d
/model.6/cv2/conv/Conv_output_0: 3d87f1d9
/model.6/cv2/act/Sigmoid_output_0: 3c09a678
/model.6/cv2/act/Mul_output_0: 3cc0ea75
/model.7/conv/Conv_output_0: 3da5f79f
/model.7/act/Sigmoid_output_0: 3c00e002
/model.7/act/Mul_output_0: 3cd188d1
/model.8/cv1/conv/Conv_output_0: 3de28d09
/model.8/cv1/act/Sigmoid_output_0: 3c01097d
/model.8/cv1/act/Mul_output_0: 3d416ec3
/model.22/m.0/cv3/conv/Conv_output_0: 3dd13118
/model.22/m.0/m/m.1/Add_output_0: 3dba0c0a
/model.22/Concat_output_0: 3cd336e0
/model.23/Unsqueeze_7_output_0: 3e9f4871
/model.22/cv2/act/Sigmoid_output_0: 3c099d7e
/model.22/m.0/m/m.1/cv2/act/Sigmoid_output_0: 3c075ea0
/model.8/Split_output_0: 3d416ec3
/model.23/Reshape_12_output_0: 3e9f4871
/model.23/Transpose_output_0: 3f204a85
/model.23/Expand_3_output_0: 3e9f4871
/model.8/Split_output_1: 3d246fa0
/model.8/m.0/cv1/conv/Conv_output_0: 3d8b0ef9
/model.8/m.0/cv2/conv/Conv_output_0: 3dafa8b1
/model.8/m.0/cv1/act/Sigmoid_output_0: 3c01102c
/model.8/m.0/cv2/act/Sigmoid_output_0: 3c0109fc
/model.8/m.0/cv1/act/Mul_output_0: 3cd05320
/model.8/m.0/cv2/act/Mul_output_0: 3d42d13e
/model.8/m.0/m/m.0/cv1/conv/Conv_output_0: 3d88ac73
/model.8/m.0/m/m.0/cv1/act/Sigmoid_output_0: 3c02f782
/model.8/m.0/m/m.0/cv1/act/Mul_output_0: 3d24cdf8
/model.8/m.0/m/m.0/cv2/conv/Conv_output_0: 3d93f93f
/model.8/m.0/m/m.0/cv2/act/Sigmoid_output_0: 3c00c679
/model.8/m.0/m/m.0/cv2/act/Mul_output_0: 3d0047bd
/model.8/m.0/m/m.0/Add_output_0: 3d5040cc
/model.8/m.0/m/m.1/cv1/conv/Conv_output_0: 3d588ff9
/model.8/m.0/m/m.1/cv1/act/Sigmoid_output_0: 3c00e66e
/model.8/m.0/m/m.1/cv1/act/Mul_output_0: 3d274bbf
/model.8/m.0/m/m.1/cv2/conv/Conv_output_0: 3df16f35
/model.8/m.0/m/m.1/cv2/act/Sigmoid_output_0: 3c010760
/model.8/m.0/m/m.1/cv2/act/Mul_output_0: 3d90655c
/model.8/m.0/m/m.1/Add_output_0: 3daa7759
/model.8/m.0/Concat_output_0: 3d91f2ae
/model.8/m.0/cv3/conv/Conv_output_0: 3d837029
/model.8/m.0/cv3/act/Sigmoid_output_0: 3c009a99
/model.8/m.0/cv3/act/Mul_output_0: 3cc0dcd4
/model.8/Concat_output_0: 3d01421a
/model.8/cv2/conv/Conv_output_0: 3dd211e1
/model.8/cv2/act/Sigmoid_output_0: 3c02134f
/model.8/cv2/act/Mul_output_0: 3d240595
/model.9/cv1/conv/Conv_output_0: 3daf5c2e
/model.9/cv1/act/Sigmoid_output_0: 3c01059f
/model.9/cv1/act/Mul_output_0: 3d912884
/model.9/m/MaxPool_output_0: 3d912884
/model.9/m_1/MaxPool_output_0: 3d912884
/model.9/m_2/MaxPool_output_0: 3d912884
/model.9/Concat_output_0: 3da8d84d
/model.9/cv2/conv/Conv_output_0: 3d9d4228
/model.9/cv2/act/Sigmoid_output_0: 3c0195c1
/model.9/cv2/act/Mul_output_0: 3c9a3f78
/model.10/cv1/conv/Conv_output_0: 3dc5b080
/model.10/cv1/act/Sigmoid_output_0: 3c0109f6
/model.10/cv1/act/Mul_output_0: 3d66cb08
/model.23/cv3.2/cv3.2.1/cv3.2.1.1/act/Sigmoid_output_0: 3c0849f9
/model.23/cv3.1/cv3.1.1/cv3.1.1.0/act/Sigmoid_output_0: 3c01384d
ONNXTRT_ShapeShuffle_239_output: 0
/model.23/Reshape_10_output_0: 3e9f4871
/model.23/cv2.2/cv2.2.0/act/Sigmoid_output_0: 3c0e1185
/model.23/Add_5_output_0: 3e010a14
/model.10/Split_output_0: 3d909a77
(Unnamed Layer* 505) [Constant]_output: 0
/model.23/cv2.1/cv2.1.1/act/Mul_output_0: 3e120e9e
/model.23/Add_10_output_0: 3f219199
/model.10/Split_output_1: 3d25252e
/model.23/cv3.1/cv3.1.0/cv3.1.0.1/act/Mul_output_0: 3ce54a80
/model.23/Unsqueeze_10_output_0: 3e1d4449
/model.10/m/m.0/attn/qkv/conv/Conv_output_0: 3d8bbddd
/model.23/cv3.2/cv3.2.0/cv3.2.0.1/act/Sigmoid_output_0: 3c05e787
/model.23/Concat_20_output_0: 3e1d4449
/model.23/cv3.2/cv3.2.0/cv3.2.0.0/act/Sigmoid_output_0: 3c01062d
/model.23/Unsqueeze_6_output_0: 3e9f4871
/model.23/Reshape_15_output_0: 3e1d4449
/model.23/Reshape_8_output_0: 3e9f4871
/model.23/dfl/Transpose_output_0: 3dcb0a5b
/model.23/Constant_67_output_0_output: 3c810a14
/model.23/ConstantOfShape_2_output_0: 0
/model.23/Reshape_17_output_0: 3e1d4449
ONNXTRT_Broadcast_234_output: 3b810a14
/model.23/cv3.1/cv3.1.1/cv3.1.1.0/act/Mul_output_0: 3d249daa
/model.23/Concat_22_output_0: 3f204a85
/model.22/m.0/m/m.1/cv1/conv/Conv_output_0: 3d766c9a
/model.22/cv2/conv/Conv_output_0: 3d8d74b3
/model.21/Concat_output_0: 3c996591
/model.10/m/m.0/attn/Reshape_output_0: 3d8bbddd
/model.22/m.0/cv3/act/Sigmoid_output_0: 3c02c077
/model.23/ConstantOfShape_1_output_0: 0
/model.23/Reshape_11_output_0: 3e9f4871
/model.23/cv3.2/cv3.2.1/cv3.2.1.1/conv/Conv_output_0: 3d1125a6
/model.22/m.0/m/m.1/cv2/conv/Conv_output_0: 3decc5d8
/model.23/cv3.2/cv3.2.0/cv3.2.0.1/conv/Conv_output_0: 3d1c8e7b
/model.10/m/m.0/attn/Split_output_0: 3d4c2902
/model.22/m.0/m/m.1/cv1/act/Sigmoid_output_0: 3bff11a4
/model.23/Expand_1_output_0: 3f204a85
/model.23/Unsqueeze_3_output_0: 3f204a85
/model.10/m/m.0/attn/Split_output_1: 3d8bbaf1
/model.23/Reshape_9_output_0: 3e9f4871
/model.22/m.0/cv2/conv/Conv_output_0: 3d2f57a0
/model.23/Unsqueeze_9_output_0: 3e1d4449
/model.10/m/m.0/attn/Split_output_2: 3d8c2cef
/model.10/m/m.0/attn/Transpose_output_0: 3d4c2902
/model.10/m/m.0/attn/Reshape_2_output_0: 3d8c2cef
/model.10/m/m.0/attn/MatMul_output_0: 3f754dce
/model.10/m/m.0/attn/pe/conv/Conv_output_0: 3d456cf6
/model.10/m/m.0/attn/Constant_6_output_0_output: 3ab67d3d
ONNXTRT_Broadcast_output: 3ab67d3d
/model.10/m/m.0/attn/Mul_1_output_0: 3e2d74c1
/model.10/m/m.0/attn/Softmax_output: 39d6e085
/model.10/m/m.0/attn/Softmax_output_0: 39d6e085
/model.23/Unsqueeze_4_output_0: 3f204a85
ONNXTRT_ShapeShuffle_232_output: 3c010a14
/model.10/m/m.0/attn/Transpose_1_output_0: 39d6e085
/model.10/m/m.0/attn/MatMul_1_output_0: 3d52218d
/model.10/m/m.0/attn/Reshape_1_output_0: 3d52218d
/model.10/m/m.0/attn/Add_output_0: 3d2fd802
/model.10/m/m.0/attn/proj/conv/Conv_output_0: 3d10151e
/model.10/m/m.0/Add_output_0: 3daac7b0
/model.10/m/m.0/ffn/ffn.0/conv/Conv_output_0: 3d57a65d
/model.10/m/m.0/ffn/ffn.0/act/Sigmoid_output_0: 3bff097a
/model.10/m/m.0/ffn/ffn.0/act/Mul_output_0: 3b11045d
/model.10/m/m.0/ffn/ffn.1/conv/Conv_output_0: 3d330fe1
/model.10/m/m.0/Add_1_output_0: 3d9d04b5
/model.10/Concat_output_0: 3d909a77
/model.10/cv2/conv/Conv_output_0: 3d961f23
/model.10/cv2/act/Sigmoid_output_0: 3bfd8edf
/model.10/cv2/act/Mul_output_0: 3b1038f1
/model.11/Resize_output_0: 3b1038f1
/model.12/Concat_output_0: 3c99eba7
/model.13/cv1/conv/Conv_output_0: 3d8aba4b
/model.13/cv1/act/Sigmoid_output_0: 3c001f0a
/model.13/cv1/act/Mul_output_0: 3cb20b76
/model.23/Div_1_output_0: 3f2049cb
ONNXTRT_ShapeShuffle_314_output: 0
/model.23/Split_1_output_0: 3dcb0a5b
/model.23/Split_1_output_1: 3ddefb67
/model.22/m.0/m/m.0/cv1/act/Mul_output_0: 3c990173
/model.23/Concat_6_output_0: 3ddefb67
/model.13/Split_output_0: 3cc0c96a
/model.22/m.0/cv1/act/Sigmoid_output_0: 3be3d2de
output0: 40a049cb
/model.22/cv1/act/Sigmoid_output_0: 3c079bfc
/model.13/Split_output_1: 3c7320bb
/model.13/m.0/cv1/conv/Conv_output_0: 3d4ae3e3
/model.13/m.0/cv1/act/Sigmoid_output_0: 3bfc35ae
/model.13/m.0/cv1/act/Mul_output_0: 3ca4b427
/model.13/m.0/cv2/conv/Conv_output_0: 3d79ba18
/model.13/m.0/cv2/act/Sigmoid_output_0: 3c03f158
/model.13/m.0/cv2/act/Mul_output_0: 3d003a2d
/model.13/m.0/Add_output_0: 3d6528b5
/model.13/Concat_output_0: 3ce6c853
/model.13/cv2/conv/Conv_output_0: 3da46949
/model.13/cv2/act/Sigmoid_output_0: 3c025df5
/model.13/cv2/act/Mul_output_0: 3c5ca246
/model.14/Resize_output_0: 3c5ca246
/model.15/Concat_output_0: 3cb3cbe1
/model.16/cv1/conv/Conv_output_0: 3d6dca60
/model.16/cv1/act/Sigmoid_output_0: 3c00f9ac
/model.16/cv1/act/Mul_output_0: 3cb2f764
/model.23/cv3.1/cv3.1.1/cv3.1.1.1/act/Sigmoid_output_0: 3c047c8c
/model.22/m.0/m/m.0/cv2/conv/Conv_output_0: 3d4a1288
/model.23/cv3.1/cv3.1.1/cv3.1.1.1/conv/Conv_output_0: 3d45010c
/model.22/m.0/m/m.0/Add_output_0: 3d3ef86b
/model.22/m.0/m/m.0/cv2/act/Sigmoid_output_0: 3c01c63f
/model.23/cv2.1/cv2.1.1/conv/Conv_output_0: 3e31553e
/model.16/Split_output_0: 3cb2f764
/model.22/m.0/m/m.1/cv1/act/Mul_output_0: 3ca47b61
/model.22/Split_output_1: 3cd3a5cb
ONNXTRT_ShapeShuffle_222_output: 3c010a14
/model.16/Split_output_1: 3c900a28
/model.16/m.0/cv1/conv/Conv_output_0: 3d1cb217
/model.16/m.0/cv1/act/Sigmoid_output_0: 3bff2df6
/model.16/m.0/cv1/act/Mul_output_0: 3cd1e7ef
/model.16/m.0/cv2/conv/Conv_output_0: 3d4be831
/model.16/m.0/cv2/act/Sigmoid_output_0: 3c004f27
/model.16/m.0/cv2/act/Mul_output_0: 3cd0e6e8
/model.16/m.0/Add_output_0: 3d07922e
/model.16/Concat_output_0: 3ce93b7e
/model.16/cv2/conv/Conv_output_0: 3d6b97fe
/model.16/cv2/act/Sigmoid_output_0: 3c03025d
/model.16/cv2/act/Mul_output_0: 3cbfdf6d
/model.17/conv/Conv_output_0: 3d71ab8b
/model.23/cv2.0/cv2.0.0/conv/Conv_output_0: 3d8d1f74
/model.23/cv3.0/cv3.0.0/cv3.0.0.0/conv/Conv_output_0: 3d379c77
/model.17/act/Sigmoid_output_0: 3bff7f3d
/model.23/cv2.0/cv2.0.0/act/Sigmoid_output_0: 3bfb2c3a
/model.23/cv3.0/cv3.0.0/cv3.0.0.0/act/Sigmoid_output_0: 3bfe120a
/model.17/act/Mul_output_0: 3c90095b
/model.23/cv2.0/cv2.0.0/act/Mul_output_0: 3c99d97a
/model.23/cv3.0/cv3.0.0/cv3.0.0.0/act/Mul_output_0: 3d1110db
/model.18/Concat_output_0: 3c7254c8
/model.23/cv2.0/cv2.0.1/conv/Conv_output_0: 3e391ddb
/model.23/cv3.0/cv3.0.0/cv3.0.0.1/conv/Conv_output_0: 3d3e0dfa
/model.19/cv1/conv/Conv_output_0: 3d49c3ef
/model.23/cv2.0/cv2.0.1/act/Sigmoid_output_0: 3c010a14
/model.23/cv3.0/cv3.0.0/cv3.0.0.1/act/Sigmoid_output_0: 3c0077cb
/model.19/cv1/act/Sigmoid_output_0: 3bfff826
/model.23/cv2.0/cv2.0.1/act/Mul_output_0: 3dc4ecce
/model.23/cv3.0/cv3.0.0/cv3.0.0.1/act/Mul_output_0: 3cd34783
/model.19/cv1/act/Mul_output_0: 3c99ff43
/model.23/cv2.0/cv2.0.2/Conv_output_0: 3dcb0091
/model.23/cv3.0/cv3.0.1/cv3.0.1.0/conv/Conv_output_0: 3d6832d7
/model.23/Unsqueeze_12_output_0: 3f204a85
/model.23/Reshape_14_output_0: 3e1d4449
/model.22/m.0/cv1/act/Mul_output_0: 3c14f67d
/model.22/m.0/m/m.0/cv2/act/Mul_output_0: 3ce9da0d
/model.23/Reshape_2_output_0: 3db3a6c3
/model.23/Squeeze_2_output_0_output: 3e810a14
/model.19/Split_output_0: 3ce70ab0
ONNXTRT_ShapeShuffle_307_output: 3c010a14
/model.23/Range_5_output_0: 3e193bf8
/model.23/Range_3_output_0: 3e9d4449
/model.19/Split_output_1: 3c72431c
/model.23/cv3.0/cv3.0.1/cv3.0.1.0/act/Sigmoid_output_0: 3c00c310
/model.19/m.0/cv1/conv/Conv_output_0: 3d171ac1
/model.23/cv3.0/cv3.0.1/cv3.0.1.0/act/Mul_output_0: 3d239ba0
/model.19/m.0/cv1/act/Sigmoid_output_0: 3c0414d5
/model.23/cv3.0/cv3.0.1/cv3.0.1.1/conv/Conv_output_0: 3d3a2fc3
/model.19/m.0/cv1/act/Mul_output_0: 3cc24b28
/model.23/cv3.0/cv3.0.1/cv3.0.1.1/act/Sigmoid_output_0: 3c0798c9
/model.19/m.0/cv2/conv/Conv_output_0: 3d8203c5
/model.23/cv3.0/cv3.0.1/cv3.0.1.1/act/Mul_output_0: 3cea2826
/model.19/m.0/cv2/act/Sigmoid_output_0: 3c024dde
/model.23/cv3.0/cv3.0.2/Conv_output_0: 3ddefb67
/model.19/m.0/cv2/act/Mul_output_0: 3d01db51
/model.23/Concat_output_0: 3ddefb67
/model.19/m.0/Add_output_0: 3d3f955e
/model.23/Expand_4_output_0: 3e1d4449
/model.23/Transpose_1_output_0: 3e810a14
/model.19/Concat_output_0: 3cd104e5
/model.23/cv2.1/cv2.1.2/Conv_output_0: 3dc8d5a4
/model.23/Reshape_7_output_0: 3f204a85
/model.23/dfl/Reshape_1_output_0: 3db842ef
/model.19/cv2/conv/Conv_output_0: 3d7ad973
/model.23/dfl/Softmax_output: 3b9fa4ff
/model.23/Squeeze_1_output_0_output: 3e010a14
/model.23/cv2.2/cv2.2.1/act/Sigmoid_output_0: 3c010a14
/model.22/m.0/m/m.0/cv1/act/Sigmoid_output_0: 3c010847
/model.19/cv2/act/Sigmoid_output_0: 3c037832
/model.22/cv2/act/Mul_output_0: 3d00bfe8
/model.23/cv3.1/cv3.1.0/cv3.1.0.1/act/Sigmoid_output_0: 3c0065f3
/model.23/Add_8_output_0: 3e810a14
/model.23/Constant_14_output_0_output: 0
/model.23/Constant_15_output_0_output: 3c010a14
/model.23/Sub_output_0: 3f1f3e75
ONNXTRT_Broadcast_309_output: 3b810a14
/model.23/Reshape_1_output_0: 3dd670b4
/model.23/cv3.2/cv3.2.0/cv3.2.0.0/act/Mul_output_0: 3d659eeb
/model.23/Concat_2_output_0: 3db3a6c3
/model.23/Reshape_16_output_0: 3e1d4449
/model.23/cv3.2/cv3.2.0/cv3.2.0.1/act/Mul_output_0: 3ca4a6b6
/model.23/Range_output_0: 3f1f4871
ONNXTRT_ShapeShuffle_146_output: 3c010a14
/model.23/cv3.2/cv3.2.1/cv3.2.1.0/conv/Conv_output_0: 3d816b94
ONNXTRT_Broadcast_419_output: 3c810a14
(Unnamed Layer* 627) [Constant]_output: 0
/model.23/dfl/conv/Conv_output_0: 3db842ef
ONNXTRT_ShapeShuffle_297_output: 3c010a14
/model.23/Slice_output_0: 3dc293a7
/model.23/cv3.2/cv3.2.0/cv3.2.0.0/conv/Conv_output_0: 3da1fe74
/model.23/Range_1_output_0: 3f1f4871
ONNXTRT_ShapeShuffle_156_output: 3c010a14
/model.23/cv3.2/cv3.2.1/cv3.2.1.0/act/Mul_output_0: 3cffc165
/model.19/cv2/act/Mul_output_0: 3cc0541e
/model.23/Reshape_output_0: 3ddefb67
/model.23/Constant_16_output_0_output: 3b810a14
ONNXTRT_Broadcast_159_output: 3b810a14
/model.23/Reshape_4_output_0: 3f204a85
ONNXTRT_Broadcast_161_output: 3b810a14
/model.23/Reshape_3_output_0: 3f204a85
/model.22/m.0/m/m.0/cv1/conv/Conv_output_0: 3d40135f
/model.23/Expand_2_output_0: 3e9f4871
/model.20/conv/Conv_output_0: 3d92f88a
/model.23/cv2.1/cv2.1.0/conv/Conv_output_0: 3daba9b7
/model.23/cv3.1/cv3.1.0/cv3.1.0.0/conv/Conv_output_0: 3d93f84a
(Unnamed Layer* 382) [Constant]_output: 0
ONNXTRT_ShapeShuffle_164_output: 0
/model.23/ConstantOfShape_output_0: 0
/model.23/Concat_10_output_0: 3f204a85
/model.22/m.0/Concat_output_0: 3d901c1b
/model.23/Concat_15_output_0: 3e9f4871
/model.22/m.0/cv3/act/Mul_output_0: 3d2451d4
/model.23/Reshape_5_output_0: 3f204a85
/model.23/Reshape_6_output_0: 3f204a85
/model.20/act/Sigmoid_output_0: 3c008c11
/model.23/cv2.1/cv2.1.0/act/Sigmoid_output_0: 3c00a017
/model.23/cv3.1/cv3.1.0/cv3.1.0.0/act/Sigmoid_output_0: 3c040d49
/model.23/Squeeze_output_0_output: 3d810a14
ONNXTRT_Broadcast_169_output: 3d810a14
/model.23/Add_2_output_0: 3d810a14
/model.23/cv2.2/cv2.2.2/Conv_output_0: 3db20da6
/model.20/act/Mul_output_0: 3cb124dd
/model.23/cv2.1/cv2.1.0/act/Mul_output_0: 3cffb1fd
/model.23/cv3.1/cv3.1.0/cv3.1.0.0/act/Mul_output_0: 3d40fb05
/model.23/cv3.1/cv3.1.2/Conv_output_0: 3dd28009
/model.23/cv3.1/cv3.1.1/cv3.1.1.1/act/Mul_output_0: 3cd31637
/model.22/m.0/cv1/conv/Conv_output_0: 3ce6287d
/model.23/cv3.1/cv3.1.0/cv3.1.0.1/conv/Conv_output_0: 3d728d2a
/model.22/m.0/cv2/act/Mul_output_0: 3cb20681
/model.23/Concat_1_output_0: 3dd670b4
/model.22/m.0/cv2/act/Sigmoid_output_0: 3c000ee6
/model.22/cv1/conv/Conv_output_0: 3d86b61c
/model.23/cv2.1/cv2.1.1/act/Sigmoid_output_0: 3c010a14
/model.23/cv3.1/cv3.1.1/cv3.1.1.0/conv/Conv_output_0: 3d541d7f
/model.23/Expand_output_0: 3f204a85
/model.23/cv2.2/cv2.2.1/conv/Conv_output_0: 3e1fd216
